<pad>	0
<unk>	0
<sos>	0
<eos>	0
▁t	-0
▁a	-1
en	-2
es	-3
er	-4
▁d	-5
▁s	-6
in	-7
▁th	-8
▁c	-9
▁p	-10
▁l	-11
os	-12
on	-13
▁m	-14
an	-15
ar	-16
or	-17
as	-18
▁w	-19
▁de	-20
re	-21
▁h	-22
is	-23
at	-24
ue	-25
▁the	-26
ou	-27
▁es	-28
al	-29
▁e	-30
un	-31
it	-32
▁b	-33
▁o	-34
ent	-35
▁f	-36
▁n	-37
▁q	-38
▁y	-39
ic	-40
nd	-41
ad	-42
om	-43
▁to	-44
ing	-45
▁que	-46
▁in	-47
▁I	-48
ci	-49
le	-50
▁un	-51
▁g	-52
▁A	-53
▁en	-54
am	-55
ed	-56
id	-57
▁la	-58
▁v	-59
▁of	-60
ll	-61
ro	-62
us	-63
▁est	-64
▁ha	-65
▁T	-66
im	-67
ec	-68
▁E	-69
▁re	-70
ra	-71
▁el	-72
▁no	-73
ve	-74
▁S	-75
▁con	-76
▁that	-77
▁you	-78
▁is	-79
et	-80
▁and	-81
do	-82
▁se	-83
▁Y	-84
em	-85
▁it	-86
ol	-87
▁com	-88
ion	-89
ly	-90
ig	-91
▁Th	-92
▁And	-93
▁lo	-94
ut	-95
▁wh	-96
ir	-97
ere	-98
▁we	-99
st	-100
ow	-101
▁al	-102
ch	-103
ab	-104
ente	-105
ay	-106
ct	-107
ant	-108
ón	-109
est	-110
ien	-111
▁par	-112
il	-113
▁P	-114
▁r	-115
ur	-116
▁on	-117
▁una	-118
▁los	-119
ot	-120
ía	-121
▁W	-122
od	-123
ul	-124
▁this	-125
▁be	-126
ver	-127
ce	-128
▁B	-129
if	-130
▁pro	-131
▁N	-132
ist	-133
▁L	-134
ero	-135
▁su	-136
▁mu	-137
▁an	-138
out	-139
▁for	-140
▁C	-141
▁me	-142
▁st	-143
el	-144
▁ex	-145
▁M	-146
iv	-147
ke	-148
amos	-149
▁por	-150
ter	-151
▁do	-152
▁las	-153
▁was	-154
▁H	-155
▁ab	-156
ld	-157
aci	-158
ado	-159
▁as	-160
ers	-161
lo	-162
ust	-163
ás	-164
▁qu	-165
qu	-166
ple	-167
ill	-168
▁so	-169
▁So	-170
▁¿	-171
ib	-172
▁are	-173
ally	-174
emos	-175
go	-176
▁tr	-177
ia	-178
▁go	-179
▁j	-180
to	-181
ando	-182
▁k	-183
▁para	-184
▁ver	-185
▁have	-186
th	-187
▁del	-188
▁can	-189
um	-190
▁D	-191
▁The	-192
ith	-193
▁they	-194
▁-	-195
▁pr	-196
era	-197
de	-198
▁--	-199
▁at	-200
▁cu	-201
▁with	-202
ag	-203
ort	-204
io	-205
▁It	-206
se	-207
▁We	-208
▁what	-209
▁1	-210
ht	-211
▁des	-212
▁ne	-213
▁más	-214
▁im	-215
iz	-216
ear	-217
▁us	-218
our	-219
▁all	-220
▁sh	-221
▁not	-222
ac	-223
and	-224
▁about	-225
ier	-226
▁Est	-227
▁ch	-228
ect	-229
ation	-230
▁wor	-231
▁fr	-232
idad	-233
ap	-234
eo	-235
cer	-236
que	-237
ould	-238
ud	-239
tr	-240
ient	-241
ación	-242
00	-243
▁som	-244
▁como	-245
up	-246
▁O	-247
ica	-248
▁ten	-249
▁li	-250
ta	-251
▁ar	-252
te	-253
▁much	-254
▁está	-255
ens	-256
▁there	-257
▁gr	-258
ada	-259
ight	-260
ess	-261
▁pl	-262
▁or	-263
mo	-264
▁he	-265
ok	-266
per	-267
pl	-268
▁le	-269
end	-270
▁G	-271
pr	-272
▁pue	-273
uest	-274
▁esto	-275
▁But	-276
▁Es	-277
oc	-278
pe	-279
aj	-280
ese	-281
ive	-282
▁si	-283
ore	-284
▁kn	-285
▁cre	-286
▁ser	-287
▁pre	-288
▁res	-289
▁my	-290
▁di	-291
▁one	-292
mente	-293
ide	-294
og	-295
▁like	-296
▁ent	-297
ido	-298
▁son	-299
▁tod	-300
cia	-301
amente	-302
▁Pero	-303
ones	-304
ate	-305
▁man	-306
..	-307
▁No	-308
▁don	-309
gun	-310
▁U	-311
▁just	-312
▁real	-313
▁know	-314
▁En	-315
ante	-316
▁act	-317
ma	-318
eople	-319
▁per	-320
ies	-321
ora	-322
▁hab	-323
▁R	-324
▁ma	-325
▁very	-326
ip	-327
▁As	-328
amb	-329
ces	-330
ink	-331
ie	-332
▁muy	-333
gu	-334
▁from	-335
▁dif	-336
ños	-337
port	-338
ind	-339
▁thing	-340
▁people	-341
▁pers	-342
ros	-343
aus	-344
ity	-345
all	-346
▁cos	-347
▁Wh	-348
ech	-349
▁mi	-350
▁te	-351
▁out	-352
▁prob	-353
▁pod	-354
▁This	-355
▁F	-356
ico	-357
▁2	-358
her	-359
▁em	-360
▁You	-361
du	-362
bre	-363
▁dis	-364
▁eso	-365
▁them	-366
ción	-367
▁think	-368
pp	-369
▁tra	-370
▁these	-371
▁este	-372
▁tien	-373
▁up	-374
▁person	-375
ure	-376
▁our	-377
emp	-378
▁going	-379
ios	-380
act	-381
▁hacer	-382
▁inter	-383
ión	-384
▁cl	-385
▁get	-386
▁see	-387
ause	-388
art	-389
oug	-390
▁bec	-391
▁comp	-392
ge	-393
▁cont	-394
▁La	-395
orm	-396
▁Así	-397
▁has	-398
ine	-399
ult	-400
▁sa	-401
uen	-402
ound	-403
les	-404
án	-405
ans	-406
▁esta	-407
den	-408
▁nos	-409
fer	-410
aba	-411
con	-412
ales	-413
▁car	-414
▁ac	-415
▁pas	-416
▁mis	-417
▁here	-418
ven	-419
ice	-420
oy	-421
▁really	-422
▁In	-423
▁esc	-424
ados	-425
▁but	-426
▁They	-427
ich	-428
gr	-429
▁your	-430
ug	-431
▁hay	-432
▁El	-433
ame	-434
so	-435
ida	-436
▁some	-437
▁want	-438
▁po	-439
ost	-440
▁by	-441
quí	-442
▁am	-443
▁look	-444
▁year	-445
▁more	-446
hora	-447
ez	-448
av	-449
ub	-450
ié	-451
▁ob	-452
ually	-453
ose	-454
▁who	-455
▁Un	-456
▁J	-457
der	-458
▁V	-459
▁tim	-460
▁nuest	-461
▁had	-462
able	-463
▁if	-464
very	-465
uer	-466
ous	-467
▁would	-468
▁algo	-469
▁ro	-470
one	-471
▁were	-472
▁sol	-473
ores	-474
▁mun	-475
▁todo	-476
olog	-477
ño	-478
▁mo	-479
▁años	-480
ign	-481
ca	-482
▁pero	-483
▁proble	-484
eces	-485
ack	-486
ru	-487
ast	-488
ard	-489
▁ad	-490
▁Now	-491
▁part	-492
hing	-493
▁when	-494
ment	-495
▁inc	-496
king	-497
▁how	-498
▁way	-499
ina	-500
ong	-501
▁sab	-502
▁co	-503
iento	-504
▁say	-505
ber	-506
▁ide	-507
▁qué	-508
▁actually	-509
▁did	-510
ible	-511
▁because	-512
ién	-513
ual	-514
imos	-515
▁ell	-516
led	-517
ué	-518
▁mundo	-519
▁world	-520
tra	-521
ater	-522
▁then	-523
▁time	-524
ace	-525
▁fue	-526
▁inf	-527
ían	-528
▁cosas	-529
ther	-530
▁cuando	-531
▁said	-532
▁cas	-533
▁import	-534
ain	-535
ras	-536
▁ta	-537
▁fe	-538
onces	-539
▁ll	-540
co	-541
▁That	-542
▁every	-543
▁things	-544
▁sobre	-545
▁their	-546
ial	-547
itt	-548
▁era	-549
▁sim	-550
▁now	-551
▁cal	-552
▁somet	-553
▁Por	-554
▁will	-555
▁aquí	-556
▁sp	-557
▁med	-558
▁hum	-559
la	-560
ite	-561
▁happ	-562
...	-563
ough	-564
▁sus	-565
wo	-566
jo	-567
iendo	-568
▁gen	-569
▁deci	-570
ió	-571
ild	-572
▁He	-573
▁tal	-574
fic	-575
▁prim	-576
ach	-577
▁Ch	-578
▁rec	-579
▁fun	-580
cias	-581
▁ni	-582
▁Se	-583
pt	-584
▁years	-585
▁work	-586
▁é	-587
▁into	-588
age	-589
▁porque	-590
▁may	-591
baj	-592
ions	-593
cion	-594
cul	-595
▁puede	-596
▁sin	-597
▁lle	-598
ómo	-599
▁which	-600
▁mill	-601
ólo	-602
oun	-603
gan	-604
▁uno	-605
ún	-606
dad	-607
▁any	-608
▁something	-609
▁ap	-610
▁got	-611
▁inv	-612
▁gente	-613
▁right	-614
ura	-615
▁other	-616
uev	-617
▁todos	-618
irst	-619
▁make	-620
▁could	-621
ambién	-622
istor	-623
▁need	-624
▁mar	-625
▁start	-626
red	-627
▁sal	-628
ian	-629
▁two	-630
▁pe	-631
▁resp	-632
ome	-633
▁cons	-634
▁K	-635
▁gran	-636
lar	-637
▁De	-638
▁llam	-639
ank	-640
▁3	-641
▁her	-642
ical	-643
▁pens	-644
▁ter	-645
▁histor	-646
▁There	-647
▁been	-648
fr	-649
ne	-650
▁What	-651
▁lot	-652
iver	-653
▁col	-654
▁vez	-655
▁ti	-656
echo	-657
▁trabaj	-658
▁human	-659
int	-660
ence	-661
▁están	-662
▁exper	-663
▁personas	-664
▁así	-665
▁first	-666
za	-667
▁ag	-668
▁dos	-669
ittle	-670
cial	-671
▁tiene	-672
▁pos	-673
▁int	-674
encia	-675
entes	-676
▁differ	-677
aron	-678
▁ele	-679
ento	-680
mos	-681
▁ev	-682
▁little	-683
▁problem	-684
ond	-685
ated	-686
▁she	-687
ree	-688
▁ra	-689
▁idea	-690
▁does	-691
▁tenemos	-692
▁Lo	-693
▁algun	-694
ff	-695
▁back	-696
000	-697
uch	-698
uego	-699
ang	-700
▁Si	-701
▁hace	-702
▁over	-703
▁yo	-704
▁produ	-705
▁fin	-706
▁les	-707
reat	-708
ific	-709
ord	-710
nolog	-711
▁also	-712
▁where	-713
▁kind	-714
▁nuev	-715
▁men	-716
▁plan	-717
ias	-718
▁cr	-719
ife	-720
way	-721
▁than	-722
ueno	-723
▁esp	-724
ody	-725
▁sólo	-726
▁hecho	-727
ck	-728
▁mad	-729
ced	-730
▁cam	-731
▁vida	-732
▁estos	-733
res	-734
▁también	-735
ict	-736
▁bu	-737
▁tiemp	-738
▁pueden	-739
▁mucho	-740
▁rel	-741
▁pregun	-742
▁br	-743
▁Well	-744
▁cor	-745
▁new	-746
ís	-747
▁bien	-748
▁comple	-749
own	-750
▁camb	-751
▁ese	-752
jer	-753
▁Los	-754
ph	-755
▁sec	-756
▁Ahora	-757
ory	-758
icos	-759
ick	-760
rib	-761
ase	-762
▁19	-763
▁pol	-764
other	-765
racias	-766
▁tu	-767
man	-768
▁tiempo	-769
me	-770
ds	-771
▁oc	-772
▁mod	-773
▁trans	-774
pres	-775
▁those	-776
ep	-777
▁sent	-778
ular	-779
▁his	-780
sel	-781
are	-782
▁esa	-783
no	-784
ugar	-785
ish	-786
▁imag	-787
▁difer	-788
da	-789
▁mej	-790
▁cap	-791
iar	-792
▁ahora	-793
▁ind	-794
prend	-795
▁estas	-796
▁realmente	-797
▁Al	-798
▁Esto	-799
▁different	-800
▁af	-801
be	-802
ata	-803
atur	-804
iero	-805
▁mom	-806
plic	-807
thing	-808
▁Q	-809
erg	-810
▁decir	-811
▁neces	-812
ito	-813
ara	-814
▁good	-815
▁bet	-816
▁ins	-817
▁poc	-818
▁5	-819
▁ant	-820
▁under	-821
▁mon	-822
▁pres	-823
▁Ent	-824
cent	-825
aciones	-826
▁most	-827
ieron	-828
ire	-829
ías	-830
▁ph	-831
▁show	-832
ren	-833
▁life	-834
▁pa	-835
endo	-836
▁aut	-837
▁Me	-838
íamos	-839
▁cada	-840
▁tienen	-841
row	-842
▁happen	-843
▁art	-844
▁prop	-845
▁even	-846
▁entre	-847
▁lugar	-848
▁down	-849
▁hac	-850
▁only	-851
iente	-852
▁fu	-853
min	-854
▁10	-855
almente	-856
▁gu	-857
adas	-858
▁otr	-859
▁tom	-860
▁bo	-861
▁sur	-862
▁const	-863
▁sy	-864
▁pat	-865
▁tip	-866
▁tell	-867
▁fo	-868
▁cent	-869
▁imp	-870
▁day	-871
▁lib	-872
tro	-873
▁Esta	-874
▁Entonces	-875
▁mat	-876
▁mil	-877
▁Ind	-878
ass	-879
▁tan	-880
▁around	-881
▁fl	-882
trar	-883
▁fam	-884
▁inst	-885
▁podemos	-886
xt	-887
▁many	-888
ning	-889
▁cer	-890
ista	-891
ance	-892
▁thr	-893
▁take	-894
ful	-895
▁4	-896
ell	-897
ivo	-898
ought	-899
▁Thank	-900
▁inform	-901
▁If	-902
▁Sh	-903
ons	-904
▁peque	-905
▁estaba	-906
erv	-907
▁called	-908
ry	-909
op	-910
▁bl	-911
▁ej	-912
▁op	-913
▁dec	-914
▁let	-915
▁20	-916
mer	-917
▁come	-918
▁met	-919
▁simple	-920
▁mismo	-921
▁er	-922
▁enc	-923
▁forma	-924
tern	-925
▁spe	-926
ations	-927
▁mejor	-928
▁desc	-929
ador	-930
▁parte	-931
▁manera	-932
▁talk	-933
▁gener	-934
▁fact	-935
ied	-936
▁otra	-937
▁sign	-938
▁being	-939
▁min	-940
▁through	-941
▁sup	-942
uro	-943
▁big	-944
ten	-945
▁vis	-946
▁Este	-947
ting	-948
▁vol	-949
▁cómo	-950
ece	-951
icas	-952
▁ellos	-953
ary	-954
ino	-955
▁form	-956
▁bas	-957
▁put	-958
▁estamos	-959
▁ve	-960
▁use	-961
iones	-962
▁podr	-963
▁doing	-964
ject	-965
rect	-966
▁three	-967
antes	-968
Qué	-969
body	-970
ange	-971
ile	-972
és	-973
get	-974
ak	-975
ués	-976
otros	-977
▁anim	-978
▁desp	-979
iva	-980
aban	-981
ecto	-982
▁same	-983
▁Bueno	-984
▁dist	-985
▁realidad	-986
ents	-987
▁dise	-988
wn	-989
▁han	-990
▁Ten	-991
▁poco	-992
ors	-993
ciones	-994
▁historia	-995
omb	-996
uel	-997
▁Hay	-998
▁mov	-999
ema	-1000
▁ya	-1001
urn	-1002
▁child	-1003
ble	-1004
▁comm	-1005
▁coun	-1006
▁hear	-1007
ave	-1008
▁reg	-1009
▁exp	-1010
▁sc	-1011
nos	-1012
▁sub	-1013
▁había	-1014
cho	-1015
usted	-1016
▁great	-1017
▁wr	-1018
par	-1019
je	-1020
tos	-1021
▁cual	-1022
▁dijo	-1023
▁well	-1024
▁univer	-1025
▁try	-1026
▁encon	-1027
▁entonces	-1028
▁play	-1029
ious	-1030
▁sig	-1031
iera	-1032
az	-1033
▁dur	-1034
▁prof	-1035
▁econ	-1036
▁planet	-1037
▁mal	-1038
▁dr	-1039
▁bus	-1040
▁why	-1041
▁espe	-1042
ga	-1043
aría	-1044
▁tipo	-1045
▁usted	-1046
und	-1047
▁mayor	-1048
▁quest	-1049
idos	-1050
▁cour	-1051
▁donde	-1052
we	-1053
ruct	-1054
▁How	-1055
ating	-1056
▁again	-1057
ys	-1058
▁ah	-1059
ates	-1060
▁bel	-1061
▁mean	-1062
enta	-1063
jos	-1064
arse	-1065
▁millones	-1066
▁didn	-1067
igh	-1068
▁mos	-1069
▁necesit	-1070
▁día	-1071
▁tech	-1072
ves	-1073
▁fuer	-1074
bl	-1075
cess	-1076
▁ven	-1077
ew	-1078
ty	-1079
ics	-1080
▁tener	-1081
▁find	-1082
▁story	-1083
▁sist	-1084
▁energ	-1085
▁should	-1086
olut	-1087
,000	-1088
▁Com	-1089
ically	-1090
▁desde	-1091
ah	-1092
▁verdad	-1093
ña	-1094
▁lar	-1095
▁course	-1096
▁vid	-1097
ars	-1098
▁agu	-1099
▁llev	-1100
▁otro	-1101
▁problema	-1102
▁dem	-1103
▁buen	-1104
▁cult	-1105
▁expl	-1106
▁nosotros	-1107
ciendo	-1108
▁luego	-1109
▁dar	-1110
▁Eso	-1111
▁percent	-1112
ins	-1113
ran	-1114
gen	-1115
▁sí	-1116
▁mir	-1117
ario	-1118
▁long	-1119
▁gust	-1120
▁made	-1121
▁mujer	-1122
▁él	-1123
vers	-1124
ano	-1125
▁sm	-1126
▁pun	-1127
ower	-1128
át	-1129
▁deb	-1130
▁creo	-1131
▁partic	-1132
▁conf	-1133
▁ir	-1134
iene	-1135
▁elect	-1136
▁exam	-1137
▁went	-1138
ja	-1139
als	-1140
cil	-1141
▁Bec	-1142
stem	-1143
▁off	-1144
iencia	-1145
igo	-1146
▁estar	-1147
▁liv	-1148
▁va	-1149
▁val	-1150
▁niños	-1151
▁ú	-1152
▁nuestro	-1153
▁lear	-1154
▁estud	-1155
▁nuestra	-1156
cept	-1157
▁Because	-1158
ise	-1159
▁Las	-1160
ior	-1161
▁incre	-1162
▁menos	-1163
▁comput	-1164
▁después	-1165
▁pal	-1166
self	-1167
▁din	-1168
iment	-1169
lt	-1170
▁mus	-1171
▁feel	-1172
▁hablar	-1173
▁own	-1174
ional	-1175
▁bi	-1176
▁wom	-1177
emplo	-1178
▁equ	-1179
▁another	-1180
▁sit	-1181
▁last	-1182
▁sort	-1183
▁trat	-1184
▁grand	-1185
▁emp	-1186
▁tec	-1187
▁call	-1188
▁quer	-1189
elo	-1190
▁ext	-1191
ob	-1192
▁An	-1193
duc	-1194
▁funcion	-1195
ft	-1196
anto	-1197
▁pregunt	-1198
▁thought	-1199
inci	-1200
▁hasta	-1201
▁interest	-1202
▁important	-1203
▁¡	-1204
ana	-1205
▁país	-1206
ilidad	-1207
▁exist	-1208
▁countr	-1209
▁rem	-1210
ger	-1211
▁stud	-1212
po	-1213
ít	-1214
▁him	-1215
▁contro	-1216
▁started	-1217
▁St	-1218
▁India	-1219
ama	-1220
▁Cu	-1221
atos	-1222
fore	-1223
▁hel	-1224
▁importante	-1225
▁rob	-1226
▁natur	-1227
▁hemos	-1228
▁def	-1229
▁progr	-1230
▁bra	-1231
ric	-1232
▁Qu	-1233
ense	-1234
▁interes	-1235
▁trabajo	-1236
▁Porque	-1237
▁suced	-1238
▁ustedes	-1239
gar	-1240
ize	-1241
kes	-1242
adores	-1243
▁ask	-1244
▁bit	-1245
▁estoy	-1246
▁system	-1247
▁constru	-1248
▁organ	-1249
▁today	-1250
▁ejemplo	-1251
▁product	-1252
med	-1253
pez	-1254
▁super	-1255
amiento	-1256
▁Con	-1257
▁end	-1258
▁fut	-1259
▁extra	-1260
vert	-1261
▁result	-1262
▁año	-1263
▁tres	-1264
▁Gracias	-1265
▁sea	-1266
uesto	-1267
▁primer	-1268
lic	-1269
des	-1270
▁quiero	-1271
▁hi	-1272
▁str	-1273
▁build	-1274
lect	-1275
empre	-1276
▁todas	-1277
▁momento	-1278
▁bot	-1279
quier	-1280
▁acer	-1281
▁underst	-1282
br	-1283
ork	-1284
ities	-1285
▁poder	-1286
▁dó	-1287
ombre	-1288
▁viv	-1289
▁technolog	-1290
form	-1291
▁aprend	-1292
oso	-1293
▁nada	-1294
aje	-1295
▁mí	-1296
▁Yo	-1297
▁voy	-1298
lus	-1299
▁won	-1300
frica	-1301
▁after	-1302
▁Is	-1303
▁nuevo	-1304
▁princi	-1305
▁gra	-1306
ene	-1307
▁mater	-1308
▁turn	-1309
▁doesn	-1310
▁still	-1311
▁comen	-1312
▁200	-1313
▁Tod	-1314
▁change	-1315
ues	-1316
▁veces	-1317
ath	-1318
▁lu	-1319
▁econom	-1320
ands	-1321
▁give	-1322
▁pien	-1323
▁saben	-1324
▁tecnolog	-1325
▁6	-1326
cid	-1327
ved	-1328
▁agua	-1329
▁water	-1330
▁question	-1331
▁muchos	-1332
▁unos	-1333
▁comun	-1334
▁came	-1335
unca	-1336
ícul	-1337
ather	-1338
▁found	-1339
▁tenía	-1340
▁Re	-1341
▁fil	-1342
▁hoy	-1343
ala	-1344
▁She	-1345
▁ella	-1346
▁cosa	-1347
▁better	-1348
▁últ	-1349
pa	-1350
▁av	-1351
▁empez	-1352
▁muchas	-1353
vel	-1354
▁segun	-1355
▁design	-1356
▁never	-1357
old	-1358
▁cab	-1359
chool	-1360
▁dice	-1361
ily	-1362
▁its	-1363
▁Cuando	-1364
▁ahí	-1365
guien	-1366
▁minut	-1367
▁cier	-1368
▁next	-1369
▁haciendo	-1370
▁Le	-1371
▁ago	-1372
ución	-1373
bo	-1374
▁cur	-1375
▁ing	-1376
▁famil	-1377
▁second	-1378
ital	-1379
▁sci	-1380
▁var	-1381
ition	-1382
▁segu	-1383
▁point	-1384
itar	-1385
osa	-1386
tain	-1387
▁baj	-1388
▁Here	-1389
▁natural	-1390
qué	-1391
ator	-1392
▁When	-1393
▁rest	-1394
▁few	-1395
icamente	-1396
▁bar	-1397
cción	-1398
▁fot	-1399
▁Aquí	-1400
▁love	-1401
áp	-1402
cle	-1403
▁before	-1404
▁Pue	-1405
▁belie	-1406
▁contin	-1407
car	-1408
aces	-1409
ited	-1410
▁env	-1411
▁antes	-1412
▁power	-1413
ward	-1414
ience	-1415
ways	-1416
▁too	-1417
▁num	-1418
read	-1419
▁grow	-1420
▁durante	-1421
ility	-1422
ks	-1423
▁robot	-1424
ivid	-1425
gether	-1426
▁30	-1427
ustr	-1428
ám	-1429
▁soci	-1430
▁escuch	-1431
▁hacia	-1432
▁algunos	-1433
▁school	-1434
ists	-1435
▁learn	-1436
▁ke	-1437
▁cere	-1438
▁together	-1439
ste	-1440
▁Una	-1441
▁obs	-1442
▁might	-1443
▁50	-1444
▁One	-1445
▁These	-1446
▁gracias	-1447
▁princip	-1448
▁understand	-1449
ED	-1450
ena	-1451
▁ay	-1452
▁app	-1453
ima	-1454
▁15	-1455
▁kid	-1456
óm	-1457
▁pub	-1458
▁Much	-1459
▁read	-1460
▁9	-1461
▁lí	-1462
▁China	-1463
▁whole	-1464
▁siempre	-1465
▁otros	-1466
▁primera	-1467
avor	-1468
anz	-1469
▁hacerlo	-1470
▁old	-1471
▁each	-1472
▁habl	-1473
▁solo	-1474
▁sistema	-1475
ative	-1476
▁sido	-1477
zón	-1478
▁rep	-1479
▁Amer	-1480
▁place	-1481
▁...	-1482
▁allí	-1483
▁four	-1484
▁tanto	-1485
ér	-1486
ail	-1487
arl	-1488
mit	-1489
ental	-1490
▁cono	-1491
▁educ	-1492
▁ideas	-1493
▁example	-1494
arlo	-1495
▁used	-1496
▁É	-1497
▁cell	-1498
▁glo	-1499
▁Cre	-1500
▁palab	-1501
Por	-1502
▁pel	-1503
▁video	-1504
ál	-1505
edor	-1506
gin	-1507
▁da	-1508
ender	-1509
▁done	-1510
▁especi	-1511
▁control	-1512
ts	-1513
▁7	-1514
ican	-1515
▁book	-1516
ánd	-1517
▁toda	-1518
▁ocur	-1519
▁always	-1520
Cómo	-1521
▁probab	-1522
eza	-1523
▁hor	-1524
▁help	-1525
▁hacen	-1526
atch	-1527
roll	-1528
ición	-1529
▁exact	-1530
▁pregunta	-1531
entro	-1532
▁otras	-1533
▁children	-1534
▁nuestros	-1535
ving	-1536
▁100	-1537
pos	-1538
ativ	-1539
ín	-1540
▁pap	-1541
▁tem	-1542
▁sl	-1543
ider	-1544
▁All	-1545
▁acerca	-1546
▁invest	-1547
▁looking	-1548
▁Let	-1549
ms	-1550
▁id	-1551
▁dic	-1552
▁mor	-1553
▁pon	-1554
▁ref	-1555
▁pret	-1556
▁favor	-1557
ood	-1558
▁Bien	-1559
▁trad	-1560
ita	-1561
▁amb	-1562
▁dije	-1563
ientos	-1564
▁commun	-1565
wer	-1566
▁abs	-1567
▁mas	-1568
ature	-1569
▁conv	-1570
ont	-1571
▁ca	-1572
▁Or	-1573
imiento	-1574
▁tecnología	-1575
lop	-1576
▁My	-1577
inar	-1578
▁rev	-1579
acion	-1580
▁z	-1581
ween	-1582
▁Why	-1583
▁fel	-1584
▁high	-1585
▁million	-1586
▁diferentes	-1587
jet	-1588
iliz	-1589
▁mag	-1590
▁loc	-1591
▁mot	-1592
fect	-1593
ogra	-1594
▁direct	-1595
▁To	-1596
▁vi	-1597
▁light	-1598
▁Mi	-1599
astante	-1600
bal	-1601
▁stu	-1602
▁esos	-1603
▁social	-1604
él	-1605
▁decid	-1606
▁small	-1607
▁TED	-1608
▁able	-1609
uv	-1610
ús	-1611
gra	-1612
uela	-1613
▁nunca	-1614
▁Des	-1615
▁between	-1616
▁particular	-1617
iter	-1618
istas	-1619
▁reci	-1620
arroll	-1621
irl	-1622
▁compr	-1623
▁deber	-1624
▁quite	-1625
▁ráp	-1626
▁ayud	-1627
▁technology	-1628
cy	-1629
uy	-1630
gos	-1631
▁Intern	-1632
▁pensar	-1633
▁alguien	-1634
▁algunas	-1635
ale	-1636
▁cir	-1637
▁mes	-1638
▁difí	-1639
▁comenz	-1640
ierra	-1641
▁sens	-1642
orn	-1643
alth	-1644
▁bre	-1645
iness	-1646
▁esas	-1647
▁proy	-1648
idades	-1649
▁van	-1650
▁8	-1651
▁move	-1652
▁model	-1653
▁wanted	-1654
▁pu	-1655
iere	-1656
rit	-1657
▁ho	-1658
▁away	-1659
ract	-1660
▁dej	-1661
▁emb	-1662
portun	-1663
▁bastante	-1664
▁supuesto	-1665
kay	-1666
ines	-1667
ized	-1668
▁comes	-1669
▁descub	-1670
oney	-1671
▁tot	-1672
▁grandes	-1673
▁mujeres	-1674
▁det	-1675
▁happened	-1676
ato	-1677
arth	-1678
ness	-1679
uesta	-1680
▁podría	-1681
▁medio	-1682
ades	-1683
luso	-1684
▁cereb	-1685
▁Ell	-1686
▁pop	-1687
pend	-1688
▁far	-1689
velop	-1690
▁punto	-1691
▁desarroll	-1692
ern	-1693
tas	-1694
▁18	-1695
▁present	-1696
wh	-1697
▁pad	-1698
▁pict	-1699
▁estado	-1700
aut	-1701
iado	-1702
ings	-1703
ientes	-1704
▁project	-1705
rop	-1706
nect	-1707
▁poss	-1708
▁esper	-1709
▁tengo	-1710
▁vamos	-1711
ket	-1712
▁blo	-1713
▁información	-1714
▁ci	-1715
▁der	-1716
▁hard	-1717
cu	-1718
▁fi	-1719
pect	-1720
▁bill	-1721
rededor	-1722
▁vir	-1723
▁list	-1724
▁women	-1725
▁mostrar	-1726
▁exc	-1727
▁Como	-1728
▁char	-1729
▁cuenta	-1730
▁Ar	-1731
▁vuel	-1732
▁aún	-1733
▁mic	-1734
▁data	-1735
▁espaci	-1736
▁Internet	-1737
▁says	-1738
▁believe	-1739
▁á	-1740
imo	-1741
ifica	-1742
▁live	-1743
▁encontr	-1744
ienen	-1745
▁persona	-1746
▁alrededor	-1747
izo	-1748
▁pi	-1749
élul	-1750
ember	-1751
▁cuer	-1752
▁dest	-1753
▁repres	-1754
▁cualquier	-1755
bor	-1756
▁Oh	-1757
cido	-1758
▁food	-1759
▁head	-1760
▁norm	-1761
▁brain	-1762
▁increí	-1763
▁trying	-1764
cio	-1765
▁ans	-1766
▁hic	-1767
▁lim	-1768
selves	-1769
▁pretty	-1770
ba	-1771
zo	-1772
▁OK	-1773
▁vac	-1774
ational	-1775
▁nú	-1776
▁ever	-1777
▁develop	-1778
ument	-1779
▁reas	-1780
▁stuff	-1781
▁everything	-1782
ará	-1783
▁run	-1784
▁beh	-1785
▁five	-1786
▁goes	-1787
▁'	-1788
ría	-1789
▁public	-1790
ner	-1791
▁ún	-1792
▁took	-1793
▁bueno	-1794
▁chang	-1795
rar	-1796
▁dig	-1797
▁evol	-1798
▁grup	-1799
▁Tenemos	-1800
▁interesting	-1801
ancia	-1802
▁less	-1803
▁dinero	-1804
▁obv	-1805
▁individ	-1806
▁má	-1807
▁jun	-1808
▁casi	-1809
▁thinking	-1810
alf	-1811
▁Pod	-1812
▁ed	-1813
ures	-1814
▁Son	-1815
▁plant	-1816
▁energía	-1817
oup	-1818
urs	-1819
inas	-1820
▁best	-1821
ientras	-1822
▁wonder	-1823
▁problemas	-1824
ismo	-1825
▁aud	-1826
▁Para	-1827
▁difícil	-1828
ablemente	-1829
ío	-1830
izar	-1831
ross	-1832
▁vie	-1833
▁piens	-1834
▁trata	-1835
▁consum	-1836
▁grande	-1837
▁sé	-1838
▁cle	-1839
▁fund	-1840
▁lleg	-1841
▁misma	-1842
▁global	-1843
▁nuestras	-1844
ird	-1845
til	-1846
angu	-1847
▁datos	-1848
▁final	-1849
▁money	-1850
▁sound	-1851
af	-1852
gl	-1853
▁New	-1854
▁activ	-1855
▁termin	-1856
ét	-1857
▁tuv	-1858
▁cant	-1859
▁casa	-1860
▁else	-1861
▁prot	-1862
▁usar	-1863
emente	-1864
▁personal	-1865
anc	-1866
gur	-1867
ories	-1868
▁mind	-1869
▁beaut	-1870
cim	-1871
▁For	-1872
▁alm	-1873
▁pes	-1874
▁escrib	-1875
ert	-1876
atro	-1877
▁Nos	-1878
▁rad	-1879
acter	-1880
arles	-1881
ffect	-1882
▁mach	-1883
▁frien	-1884
▁moment	-1885
▁observ	-1886
ron	-1887
▁Do	-1888
▁gre	-1889
iting	-1890
▁terr	-1891
▁miles	-1892
▁hand	-1893
▁modo	-1894
▁tend	-1895
▁experiment	-1896
ñas	-1897
▁teach	-1898
▁happens	-1899
▁working	-1900
ceso	-1901
▁pot	-1902
▁number	-1903
▁probably	-1904
▁[	-1905
ism	-1906
nde	-1907
▁gl	-1908
avía	-1909
▁dir	-1910
▁Creo	-1911
▁sigu	-1912
▁vers	-1913
▁encontrar	-1914
▁significa	-1915
ex	-1916
rob	-1917
▁gan	-1918
▁mem	-1919
▁prom	-1920
▁become	-1921
adie	-1922
▁eng	-1923
▁means	-1924
▁enough	-1925
▁cerebro	-1926
.000	-1927
▁giv	-1928
▁enfer	-1929
▁wrong	-1930
▁dentro	-1931
▁cambiar	-1932
▁connect	-1933
▁anything	-1934
▁investig	-1935
▁war	-1936
▁relig	-1937
▁Quiero	-1938
▁coming	-1939
bol	-1940
▁clar	-1941
▁ense	-1942
▁seem	-1943
jas	-1944
ler	-1945
imes	-1946
ately	-1947
▁lado	-1948
ret	-1949
ris	-1950
▁fá	-1951
ever	-1952
▁alg	-1953
▁red	-1954
▁intent	-1955
▁diferente	-1956
▁12	-1957
engu	-1958
▁neg	-1959
▁home	-1960
▁haber	-1961
▁health	-1962
cin	-1963
lev	-1964
una	-1965
anda	-1966
eras	-1967
▁care	-1968
▁kids	-1969
▁sense	-1970
▁pasado	-1971
▁absolut	-1972
▁descubr	-1973
maz	-1974
▁har	-1975
adora	-1976
▁situ	-1977
▁dólar	-1978
▁matter	-1979
▁information	-1980
che	-1981
por	-1982
ilar	-1983
▁luz	-1984
▁map	-1985
▁eran	-1986
▁open	-1987
▁talking	-1988
én	-1989
uerdo	-1990
▁month	-1991
▁times	-1992
▁países	-1993
▁set	-1994
ments	-1995
▁Okay	-1996
▁sino	-1997
▁space	-1998
óg	-1999
cir	-2000
urb	-2001
▁sor	-2002
▁getting	-2003
úbl	-2004
inos	-2005
▁fas	-2006
▁ciud	-2007
▁lead	-2008
▁making	-2009
hip	-2010
▁ey	-2011
isto	-2012
▁doll	-2013
▁sing	-2014
▁célul	-2015
▁mayoría	-2016
itos	-2017
▁wal	-2018
▁body	-2019
▁half	-2020
▁makes	-2021
▁increíble	-2022
Cu	-2023
ices	-2024
vern	-2025
▁soy	-2026
▁extre	-2027
▁Af	-2028
gest	-2029
▁hizo	-2030
▁Muchas	-2031
▁material	-2032
▁Á	-2033
iles	-2034
ouse	-2035
ying	-2036
▁caus	-2037
▁left	-2038
▁maybe	-2039
▁quier	-2040
▁invent	-2041
▁country	-2042
iet	-2043
▁begin	-2044
▁cambio	-2045
▁cierto	-2046
▁contra	-2047
iss	-2048
arly	-2049
llow	-2050
▁fig	-2051
▁quiz	-2052
▁mant	-2053
▁madre	-2054
▁puedo	-2055
▁somos	-2056
▁hombre	-2057
erc	-2058
▁God	-2059
▁top	-2060
▁Then	-2061
▁apar	-2062
▁disc	-2063
▁Earth	-2064
▁speci	-2065
ivos	-2066
ples	-2067
▁ning	-2068
▁parece	-2069
cimiento	-2070
▁bad	-2071
▁sil	-2072
▁sentido	-2073
▁respuesta	-2074
dos	-2075
▁muer	-2076
▁serv	-2077
▁fuera	-2078
cep	-2079
ural	-2080
▁mús	-2081
▁saw	-2082
▁suc	-2083
▁Dios	-2084
▁viol	-2085
▁process	-2086
▁Pr	-2087
▁Sí	-2088
▁test	-2089
▁polít	-2090
▁countries	-2091
ark	-2092
▁Go	-2093
bamos	-2094
▁logr	-2095
▁disco	-2096
▁objet	-2097
▁recon	-2098
▁posible	-2099
▁ig	-2100
▁leg	-2101
▁wee	-2102
▁using	-2103
ike	-2104
oca	-2105
fico	-2106
▁York	-2107
▁group	-2108
▁salud	-2109
▁et	-2110
▁prov	-2111
▁defin	-2112
▁También	-2113
▁espacio	-2114
▁interesante	-2115
ade	-2116
▁sk	-2117
ables	-2118
where	-2119
▁seman	-2120
oh	-2121
▁Am	-2122
▁att	-2123
▁inte	-2124
▁room	-2125
▁true	-2126
▁muest	-2127
▁razón	-2128
▁saber	-2129
▁picture	-2130
▁program	-2131
▁Can	-2132
▁seen	-2133
▁incluso	-2134
▁pequeño	-2135
eah	-2136
▁line	-2137
▁Todos	-2138
olution	-2139
▁energy	-2140
▁incred	-2141
▁planeta	-2142
▁caso	-2143
▁conse	-2144
▁answer	-2145
▁dólares	-2146
▁without	-2147
tes	-2148
▁comb	-2149
▁quien	-2150
▁Africa	-2151
▁create	-2152
▁Les	-2153
▁add	-2154
▁enseñ	-2155
ush	-2156
▁eas	-2157
press	-2158
▁air	-2159
▁side	-2160
▁langu	-2161
▁puedes	-2162
▁compart	-2163
▁universe	-2164
▁dé	-2165
anos	-2166
▁días	-2167
▁girl	-2168
▁pred	-2169
▁univers	-2170
idas	-2171
▁juego	-2172
▁looks	-2173
▁music	-2174
▁vemos	-2175
▁biolog	-2176
▁imagin	-2177
▁sabemos	-2178
ró	-2179
▁cho	-2180
▁contr	-2181
▁visto	-2182
yp	-2183
▁sac	-2184
▁Está	-2185
▁Euro	-2186
▁phot	-2187
▁enorm	-2188
▁ps	-2189
▁dev	-2190
▁pass	-2191
quiera	-2192
▁stand	-2193
▁hacemos	-2194
ng	-2195
ral	-2196
eles	-2197
iron	-2198
mero	-2199
▁fal	-2200
▁guy	-2201
▁pasa	-2202
▁told	-2203
▁intel	-2204
▁llama	-2205
adamente	-2206
▁os	-2207
▁amaz	-2208
▁demo	-2209
▁ident	-2210
▁mucha	-2211
▁compan	-2212
▁cuerpo	-2213
▁correct	-2214
cas	-2215
ono	-2216
▁25	-2217
ames	-2218
bier	-2219
▁Uno	-2220
▁six	-2221
▁Every	-2222
amp	-2223
lly	-2224
▁hub	-2225
▁job	-2226
▁fant	-2227
▁crear	-2228
▁science	-2229
▁fa	-2230
isión	-2231
▁clim	-2232
▁complic	-2233
▁funciona	-2234
▁transform	-2235
its	-2236
▁sw	-2237
enci	-2238
▁cou	-2239
▁fre	-2240
avill	-2241
▁qued	-2242
▁cuatro	-2243
▁proyecto	-2244
▁cin	-2245
▁sel	-2246
▁via	-2247
earch	-2248
▁later	-2249
▁liter	-2250
iamente	-2251
tamente	-2252
▁future	-2253
vés	-2254
▁sue	-2255
allen	-2256
▁ways	-2257
▁asked	-2258
▁buena	-2259
▁fueron	-2260
añ	-2261
ím	-2262
aps	-2263
ton	-2264
eros	-2265
omet	-2266
▁kil	-2267
▁sex	-2268
▁conect	-2269
▁futuro	-2270
▁inside	-2271
▁estaban	-2272
ead	-2273
▁At	-2274
▁Ex	-2275
▁bás	-2276
▁oper	-2277
▁alguna	-2278
▁complete	-2279
óx	-2280
mas	-2281
íst	-2282
uras	-2283
▁nive	-2284
▁pain	-2285
▁comer	-2286
▁mother	-2287
▁40	-2288
▁amig	-2289
▁cerca	-2290
▁estudi	-2291
▁family	-2292
▁través	-2293
▁respons	-2294
▁todavía	-2295
▁basically	-2296
uge	-2297
▁agr	-2298
▁cient	-2299
▁maravill	-2300
dle	-2301
▁CA	-2302
▁EE	-2303
▁Su	-2304
▁libro	-2305
▁record	-2306
▁líne	-2307
▁redu	-2308
▁thous	-2309
▁billion	-2310
▁consider	-2311
▁cra	-2312
▁emo	-2313
ombres	-2314
▁diseñ	-2315
▁heard	-2316
▁watch	-2317
▁amazing	-2318
0.	-2319
▁ret	-2320
▁phys	-2321
▁word	-2322
▁cientí	-2323
▁environ	-2324
▁segundo	-2325
▁simplemente	-2326
jar	-2327
las	-2328
ique	-2329
▁máqu	-2330
▁cuest	-2331
▁grupo	-2332
▁living	-2333
▁llamado	-2334
▁señ	-2335
imens	-2336
▁ocurr	-2337
▁diseño	-2338
▁dollars	-2339
▁dra	-2340
arios	-2341
▁keep	-2342
▁such	-2343
▁building	-2344
▁business	-2345
ór	-2346
viv	-2347
▁tre	-2348
▁nueva	-2349
▁lugares	-2350
▁gustaría	-2351
igu	-2352
ime	-2353
▁Im	-2354
ases	-2355
▁Not	-2356
▁oce	-2357
▁bajo	-2358
▁hour	-2359
▁insp	-2360
▁paci	-2361
▁lives	-2362
▁nothing	-2363
cr	-2364
ik	-2365
ape	-2366
llo	-2367
▁Man	-2368
▁inde	-2369
▁cells	-2370
▁works	-2371
▁follow	-2372
▁experience	-2373
▁X	-2374
ats	-2375
▁ést	-2376
arnos	-2377
▁cond	-2378
▁encant	-2379
▁reason	-2380
▁saying	-2381
▁células	-2382
ash	-2383
los	-2384
nov	-2385
▁bro	-2386
▁almost	-2387
▁general	-2388
▁perfect	-2389
▁remember	-2390
ump	-2391
ury	-2392
▁ut	-2393
▁vo	-2394
▁Fue	-2395
▁Some	-2396
▁animal	-2397
▁África	-2398
▁proceso	-2399
▁electric	-2400
▁Ha	-2401
alax	-2402
▁Esa	-2403
▁bene	-2404
▁both	-2405
▁case	-2406
▁days	-2407
▁embar	-2408
▁across	-2409
▁pie	-2410
itive	-2411
ready	-2412
▁film	-2413
▁hope	-2414
▁beautif	-2415
▁success	-2416
▁enfermed	-2417
eno	-2418
▁Él	-2419
▁isn	-2420
▁orig	-2421
▁explic	-2422
▁looked	-2423
▁escuela	-2424
▁research	-2425
gas	-2426
▁Ya	-2427
▁jo	-2428
▁acc	-2429
▁news	-2430
▁color	-2431
▁gusta	-2432
▁woman	-2433
▁ciencia	-2434
ots	-2435
ram	-2436
ener	-2437
ream	-2438
▁Estos	-2439
▁bring	-2440
▁nadie	-2441
▁segur	-2442
▁govern	-2443
▁Estamos	-2444
ivers	-2445
▁arte	-2446
▁dónde	-2447
▁sería	-2448
▁imagen	-2449
▁número	-2450
▁intelig	-2451
▁stories	-2452
▁siguiente	-2453
ira	-2454
oma	-2455
▁civ	-2456
▁dia	-2457
ention	-2458
▁allow	-2459
▁cancer	-2460
▁tienes	-2461
▁industr	-2462
ilt	-2463
rón	-2464
ológ	-2465
rodu	-2466
▁once	-2467
▁parec	-2468
▁palabras	-2469
▁Z	-2470
ortun	-2471
ramos	-2472
▁guer	-2473
▁públ	-2474
▁already	-2475
▁primero	-2476
▁necesitamos	-2477
arr	-2478
▁Be	-2479
land	-2480
outh	-2481
▁Era	-2482
▁Sin	-2483
istic	-2484
itect	-2485
▁poner	-2486
▁prote	-2487
▁words	-2488
▁empres	-2489
▁historias	-2490
ogn	-2491
▁az	-2492
ters	-2493
▁flu	-2494
▁Todo	-2495
▁fall	-2496
▁demas	-2497
▁galax	-2498
▁discover	-2499
▁mientras	-2500
▁problems	-2501
▁represent	-2502
▁individual	-2503
ós	-2504
iste	-2505
unch	-2506
work	-2507
▁ale	-2508
▁yet	-2509
▁cort	-2510
▁must	-2511
▁self	-2512
▁estad	-2513
▁Pueden	-2514
▁entender	-2515
▁environment	-2516
bs	-2517
erse	-2518
▁Right	-2519
▁comida	-2520
▁impact	-2521
▁scient	-2522
▁humanos	-2523
ane	-2524
ken	-2525
oth	-2526
ently	-2527
▁cost	-2528
▁infl	-2529
▁medic	-2530
▁notic	-2531
▁oportun	-2532
▁patient	-2533
▁On	-2534
ages	-2535
ution	-2536
▁conc	-2537
▁meses	-2538
▁listen	-2539
▁partes	-2540
▁places	-2541
▁interact	-2542
ibu	-2543
ium	-2544
echa	-2545
▁fácil	-2546
▁local	-2547
▁sufic	-2548
ulation	-2549
▁estruct	-2550
cos	-2551
▁perd	-2552
▁innov	-2553
▁couple	-2554
▁fundam	-2555
▁quiere	-2556
▁películ	-2557
▁pequeña	-2558
▁ef	-2559
▁cán	-2560
▁tar	-2561
iddle	-2562
▁igual	-2563
▁visual	-2564
▁certain	-2565
▁beautiful	-2566
UU	-2567
ets	-2568
ocup	-2569
▁dep	-2570
▁hon	-2571
▁equiv	-2572
▁organiz	-2573
▁possible	-2574
oss	-2575
ision	-2576
▁podía	-2577
▁polit	-2578
▁young	-2579
▁cáncer	-2580
▁engine	-2581
▁having	-2582
▁imagine	-2583
aria	-2584
ulta	-2585
▁dom	-2586
▁pud	-2587
▁evid	-2588
▁algún	-2589
▁tomar	-2590
▁llegar	-2591
▁history	-2592
▁similar	-2593
ajo	-2594
fía	-2595
osp	-2596
icio	-2597
▁err	-2598
▁neur	-2599
▁niño	-2600
▁became	-2601
▁ciudad	-2602
▁profes	-2603
▁preocup	-2604
ined	-2605
side	-2606
▁Par	-2607
iales	-2608
▁sure	-2609
▁cinco	-2610
▁labor	-2611
▁often	-2612
▁expect	-2613
▁figure	-2614
▁everybody	-2615
ete	-2616
ola	-2617
▁sum	-2618
genes	-2619
▁aver	-2620
▁encu	-2621
▁past	-2622
▁quick	-2623
▁quería	-2624
▁language	-2625
ote	-2626
ást	-2627
ians	-2628
▁che	-2629
▁fís	-2630
ieran	-2631
▁incl	-2632
▁mult	-2633
▁Estas	-2634
▁claro	-2635
▁lengu	-2636
▁months	-2637
▁especie	-2638
▁palabra	-2639
ibles	-2640
▁lots	-2641
iously	-2642
▁acuerdo	-2643
▁animales	-2644
▁signific	-2645
abor	-2646
▁aque	-2647
▁stop	-2648
encial	-2649
▁turns	-2650
▁market	-2651
▁challen	-2652
▁cantidad	-2653
empl	-2654
▁allá	-2655
▁requ	-2656
▁viene	-2657
▁actual	-2658
▁detect	-2659
▁hombres	-2660
▁experiencia	-2661
irt	-2662
omos	-2663
ount	-2664
▁cut	-2665
▁disp	-2666
▁vent	-2667
▁Luego	-2668
▁solar	-2669
▁effect	-2670
▁single	-2671
▁probablemente	-2672
ai	-2673
ged	-2674
gres	-2675
▁Just	-2676
▁bomb	-2677
▁guys	-2678
▁merc	-2679
▁volv	-2680
▁amigos	-2681
▁gobier	-2682
▁intern	-2683
▁continu	-2684
▁machine	-2685
ety	-2686
ches	-2687
▁ass	-2688
▁debe	-2689
▁huge	-2690
▁mano	-2691
▁priv	-2692
▁piece	-2693
▁coc	-2694
▁perm	-2695
ención	-2696
▁conoc	-2697
▁United	-2698
▁compañ	-2699
▁robots	-2700
▁aliment	-2701
▁familia	-2702
▁happening	-2703
▁wonderful	-2704
0,	-2705
fo	-2706
éd	-2707
▁wa	-2708
▁éx	-2709
▁auto	-2710
▁nego	-2711
▁unas	-2712
▁Algun	-2713
▁level	-2714
▁struct	-2715
▁especial	-2716
cra	-2717
less	-2718
▁199	-2719
▁Ese	-2720
▁May	-2721
▁foc	-2722
▁hice	-2723
▁name	-2724
▁ones	-2725
▁prev	-2726
▁equip	-2727
▁Tierra	-2728
▁myself	-2729
▁Em	-2730
▁Hab	-2731
▁pet	-2732
jeron	-2733
▁próx	-2734
▁wasn	-2735
▁ellas	-2736
▁nivel	-2737
▁instit	-2738
▁música	-2739
▁within	-2740
▁trabajar	-2741
▁construir	-2742
lex	-2743
zas	-2744
▁ast	-2745
▁bab	-2746
▁mam	-2747
uales	-2748
▁entire	-2749
▁normal	-2750
▁convert	-2751
▁diferencia	-2752
▁Ah	-2753
▁Mar	-2754
▁Uds	-2755
ucion	-2756
▁hund	-2757
▁built	-2758
▁recib	-2759
▁computer	-2760
▁extraord	-2761
▁demasiado	-2762
omas	-2763
osed	-2764
▁ris	-2765
▁permit	-2766
▁exactly	-2767
▁species	-2768
▁aprender	-2769
▁completely	-2770
▁“	-2771
app	-2772
▁ce	-2773
ctor	-2774
▁pan	-2775
▁win	-2776
▁ojos	-2777
▁pobl	-2778
▁stat	-2779
▁walk	-2780
▁modern	-2781
▁respon	-2782
▁sucede	-2783
▁Podemos	-2784
▁convers	-2785
tar	-2786
▁bal	-2787
▁cop	-2788
ction	-2789
cular	-2790
ático	-2791
▁eyes	-2792
▁supp	-2793
▁close	-2794
▁media	-2795
▁embargo	-2796
▁friends	-2797
rá	-2798
das	-2799
riba	-2800
▁mit	-2801
▁océ	-2802
▁tas	-2803
▁atra	-2804
▁class	-2805
▁nature	-2806
▁rápido	-2807
▁someone	-2808
▁nu	-2809
anza	-2810
ware	-2811
▁Sab	-2812
▁fly	-2813
▁adult	-2814
▁invol	-2815
▁short	-2816
▁16	-2817
▁	-2818
e	-2819
a	-2820
o	-2821
s	-2822
t	-2823
n	-2824
i	-2825
r	-2826
l	-2827
d	-2828
u	-2829
c	-2830
h	-2831
m	-2832
p	-2833
.	-2834
g	-2835
y	-2836
,	-2837
b	-2838
f	-2839
w	-2840
v	-2841
q	-2842
k	-2843
'	-2844
í	-2845
I	-2846
A	-2847
ó	-2848
á	-2849
T	-2850
j	-2851
E	-2852
S	-2853
-	-2854
z	-2855
Y	-2856
é	-2857
?	-2858
x	-2859
0	-2860
P	-2861
W	-2862
B	-2863
N	-2864
C	-2865
L	-2866
:	-2867
M	-2868
ñ	-2869
H	-2870
D	-2871
¿	-2872
1	-2873
O	-2874
ú	-2875
G	-2876
U	-2877
2	-2878
R	-2879
5	-2880
F	-2881
V	-2882
9	-2883
J	-2884
3	-2885
K	-2886
Q	-2887
;	-2888
4	-2889
8	-2890
6	-2891
7	-2892
!	-2893
¡	-2894
%	-2895
É	-2896
’	-2897
X	-2898
[	-2899
]	-2900
Á	-2901
Z	-2902
”	-2903
“	-2904
ü	-2905
/	-2906
♫	-2907
$	-2908
#	-2909
«	-2910
–	-2911
»	-2912
&	-2913
—	-2914
+	-2915
̈	-2916
=	-2917
‘	-2918
®	-2919
(	-2920
♪	-2921
Í	-2922
Ú	-2923
*	-2924
°	-2925
Ó	-2926
à	-2927
ń	-2928
́	-2929
)	-2930
@	-2931
ê	-2932
ö	-2933
^	-2934
â	-2935
ì	-2936
ò	-2937
个	-2938
我	-2939
`	-2940
Ñ	-2941
ã	-2942
ç	-2943
ā	-2944
⁄	-2945
。	-2946
了	-2947
你	-2948
历	-2949
啊	-2950
妈	-2951
有	-2952
来	-2953
洋	-2954
游	-2955
>	-2956
}	-2957
¥	-2958
©	-2959
­	-2960
Ç	-2961
ī	-2962
ň	-2963
ō	-2964
š	-2965
̊	-2966
€	-2967
一	-2968
下	-2969
不	-2970
世	-2971
中	-2972
以	-2973
出	-2974
可	-2975
唱	-2976
喜	-2977
声	-2978
外	-2979
大	-2980
太	-2981
妨	-2982
姐	-2983
心	-2984
教	-2985
曲	-2986
歌	-2987
王	-2988
界	-2989
的	-2990
等	-2991
给	-2992
阳	-2993
面	-2994
音	-2995
