<pad>	0
<unk>	0
<sos>	0
<eos>	0
▁t	-0
▁a	-1
en	-2
es	-3
er	-4
▁d	-5
▁s	-6
in	-7
▁th	-8
▁c	-9
▁p	-10
▁l	-11
os	-12
on	-13
▁m	-14
an	-15
ar	-16
or	-17
as	-18
▁w	-19
▁de	-20
re	-21
▁h	-22
is	-23
at	-24
ue	-25
▁the	-26
ou	-27
▁es	-28
al	-29
▁e	-30
un	-31
it	-32
▁b	-33
▁o	-34
ent	-35
▁f	-36
▁n	-37
▁q	-38
▁y	-39
ic	-40
nd	-41
ad	-42
om	-43
▁to	-44
ing	-45
▁que	-46
▁in	-47
▁I	-48
ci	-49
le	-50
▁un	-51
▁g	-52
▁A	-53
▁en	-54
am	-55
ed	-56
id	-57
▁la	-58
▁v	-59
▁of	-60
ll	-61
ro	-62
us	-63
▁est	-64
▁ha	-65
im	-66
▁T	-67
ec	-68
▁E	-69
▁re	-70
ra	-71
▁no	-72
▁el	-73
ve	-74
▁S	-75
▁that	-76
▁you	-77
▁con	-78
do	-79
▁and	-80
▁is	-81
et	-82
▁se	-83
▁Y	-84
em	-85
▁it	-86
ol	-87
▁com	-88
ig	-89
▁And	-90
ion	-91
ly	-92
▁lo	-93
▁Th	-94
ut	-95
ere	-96
▁wh	-97
ir	-98
▁we	-99
st	-100
▁al	-101
ch	-102
ow	-103
ente	-104
ab	-105
ay	-106
ant	-107
ct	-108
ón	-109
est	-110
ien	-111
▁par	-112
il	-113
▁r	-114
▁P	-115
ur	-116
▁on	-117
▁una	-118
▁los	-119
▁this	-120
ía	-121
▁W	-122
ot	-123
od	-124
▁be	-125
ver	-126
ul	-127
▁B	-128
if	-129
ce	-130
▁pro	-131
▁N	-132
▁L	-133
ist	-134
ero	-135
▁mu	-136
▁su	-137
out	-138
▁an	-139
▁for	-140
▁me	-141
▁C	-142
▁st	-143
el	-144
▁M	-145
▁ex	-146
ke	-147
▁por	-148
iv	-149
ter	-150
amos	-151
▁was	-152
▁do	-153
▁ab	-154
▁las	-155
▁H	-156
ado	-157
ld	-158
aci	-159
ers	-160
▁as	-161
ust	-162
ás	-163
ple	-164
ill	-165
qu	-166
▁qu	-167
▁so	-168
lo	-169
ib	-170
▁are	-171
▁¿	-172
▁So	-173
go	-174
▁go	-175
ia	-176
ando	-177
ally	-178
emos	-179
▁tr	-180
▁j	-181
▁k	-182
to	-183
▁para	-184
▁ver	-185
▁have	-186
um	-187
▁they	-188
th	-189
▁-	-190
▁can	-191
▁del	-192
▁The	-193
ith	-194
▁D	-195
ier	-196
de	-197
▁--	-198
▁pr	-199
▁cu	-200
ort	-201
▁at	-202
▁with	-203
▁It	-204
ag	-205
se	-206
▁We	-207
▁ne	-208
▁what	-209
▁des	-210
▁im	-211
▁más	-212
io	-213
▁1	-214
ht	-215
iz	-216
▁ch	-217
ear	-218
ac	-219
▁all	-220
▁us	-221
▁not	-222
our	-223
▁about	-224
and	-225
▁sh	-226
▁Est	-227
era	-228
idad	-229
ect	-230
ation	-231
▁fr	-232
▁wor	-233
ap	-234
▁pe	-235
cer	-236
que	-237
ould	-238
▁som	-239
▁como	-240
ud	-241
ación	-242
ient	-243
up	-244
tr	-245
end	-246
▁li	-247
00	-248
ica	-249
ta	-250
▁O	-251
te	-252
▁much	-253
ens	-254
▁está	-255
▁there	-256
ada	-257
▁he	-258
▁pl	-259
ide	-260
mo	-261
▁gr	-262
▁ar	-263
ces	-264
ight	-265
▁or	-266
pl	-267
ok	-268
▁le	-269
▁esto	-270
▁G	-271
aj	-272
per	-273
▁But	-274
▁pue	-275
▁ten	-276
▁Es	-277
pe	-278
uest	-279
og	-280
pr	-281
ore	-282
▁si	-283
ese	-284
▁like	-285
▁ser	-286
▁my	-287
oc	-288
▁pre	-289
ive	-290
▁kn	-291
mente	-292
▁res	-293
▁di	-294
▁cre	-295
▁Pero	-296
▁tod	-297
▁man	-298
..	-299
▁one	-300
▁No	-301
cia	-302
▁ent	-303
ido	-304
▁son	-305
ones	-306
amente	-307
▁don	-308
▁U	-309
gun	-310
▁just	-311
ante	-312
ate	-313
▁En	-314
▁real	-315
ies	-316
▁know	-317
▁hab	-318
ie	-319
ink	-320
ople	-321
ma	-322
▁per	-323
▁ma	-324
ess	-325
port	-326
amb	-327
ños	-328
ora	-329
▁As	-330
▁very	-331
▁R	-332
▁cos	-333
▁thing	-334
▁act	-335
▁muy	-336
▁from	-337
▁dif	-338
ity	-339
▁pers	-340
ros	-341
▁people	-342
ip	-343
gu	-344
aus	-345
ind	-346
all	-347
▁mi	-348
▁prob	-349
▁Wh	-350
▁out	-351
ech	-352
▁This	-353
▁pod	-354
▁te	-355
▁F	-356
▁think	-357
▁You	-358
her	-359
▁dis	-360
▁tra	-361
▁them	-362
▁eso	-363
▁este	-364
bre	-365
▁em	-366
▁2	-367
▁get	-368
▁inter	-369
ge	-370
ico	-371
▁hacer	-372
▁tien	-373
ure	-374
pp	-375
▁up	-376
▁person	-377
du	-378
ción	-379
▁going	-380
ión	-381
ios	-382
act	-383
▁these	-384
▁comp	-385
▁see	-386
ause	-387
▁our	-388
emp	-389
▁sa	-390
▁cl	-391
▁bec	-392
▁La	-393
oug	-394
▁Así	-395
art	-396
▁has	-397
ine	-398
uen	-399
ult	-400
▁esta	-401
orm	-402
con	-403
án	-404
aba	-405
ound	-406
▁cont	-407
▁nos	-408
les	-409
ice	-410
▁car	-411
ales	-412
▁pas	-413
ans	-414
▁here	-415
fer	-416
den	-417
oy	-418
▁but	-419
ven	-420
▁ac	-421
▁mis	-422
gr	-423
▁ve	-424
▁They	-425
▁your	-426
ida	-427
▁In	-428
▁really	-429
ug	-430
quí	-431
ados	-432
▁some	-433
ich	-434
▁esc	-435
▁want	-436
so	-437
▁am	-438
▁look	-439
▁hay	-440
▁by	-441
▁more	-442
▁El	-443
ost	-444
ié	-445
der	-446
▁year	-447
hora	-448
▁Un	-449
▁po	-450
ame	-451
▁V	-452
ose	-453
ub	-454
very	-455
▁who	-456
av	-457
▁J	-458
▁if	-459
able	-460
▁tim	-461
▁had	-462
▁nuest	-463
▁ob	-464
▁would	-465
▁mo	-466
ous	-467
uer	-468
one	-469
▁sol	-470
▁were	-471
ually	-472
ca	-473
▁algo	-474
ores	-475
ño	-476
▁proble	-477
king	-478
▁mun	-479
ign	-480
▁años	-481
olog	-482
▁pero	-483
▁todo	-484
ast	-485
▁ro	-486
▁when	-487
eces	-488
▁ad	-489
ru	-490
ack	-491
ard	-492
ment	-493
▁inc	-494
▁way	-495
▁how	-496
ible	-497
hing	-498
▁did	-499
ina	-500
▁ide	-501
▁say	-502
▁sab	-503
ong	-504
▁Now	-505
▁cosas	-506
▁because	-507
▁part	-508
ién	-509
imos	-510
iento	-511
▁co	-512
▁sim	-513
▁said	-514
onces	-515
tra	-516
▁import	-517
ber	-518
ual	-519
▁then	-520
▁cuando	-521
led	-522
ían	-523
▁ell	-524
▁mundo	-525
▁fue	-526
▁qué	-527
ué	-528
▁things	-529
ther	-530
▁time	-531
▁ll	-532
▁world	-533
▁actually	-534
za	-535
▁every	-536
▁hum	-537
▁inf	-538
▁cas	-539
itt	-540
▁aquí	-541
ain	-542
ace	-543
▁now	-544
co	-545
▁will	-546
▁fe	-547
▁Por	-548
▁sobre	-549
...	-550
ras	-551
▁tal	-552
▁era	-553
ater	-554
iendo	-555
ite	-556
▁somet	-557
▁sp	-558
▁med	-559
▁their	-560
▁cal	-561
ough	-562
▁sus	-563
ild	-564
▁That	-565
▁He	-566
▁happ	-567
jo	-568
▁gen	-569
baj	-570
▁ta	-571
▁deci	-572
pt	-573
wo	-574
▁ni	-575
ió	-576
▁Se	-577
la	-578
▁work	-579
▁é	-580
▁prim	-581
▁porque	-582
cias	-583
fic	-584
▁Ch	-585
▁years	-586
ómo	-587
▁fun	-588
ial	-589
▁rec	-590
▁lle	-591
▁puede	-592
ach	-593
ions	-594
gan	-595
ólo	-596
red	-597
▁may	-598
ome	-599
▁make	-600
ún	-601
age	-602
▁sin	-603
▁mill	-604
▁need	-605
▁into	-606
▁gente	-607
uev	-608
▁got	-609
▁ap	-610
▁uno	-611
oun	-612
▁sal	-613
▁todos	-614
lar	-615
▁any	-616
▁inv	-617
▁other	-618
ambién	-619
▁which	-620
ura	-621
dad	-622
▁mar	-623
cion	-624
▁could	-625
fr	-626
ian	-627
▁something	-628
▁cons	-629
irst	-630
istor	-631
▁right	-632
▁pens	-633
▁start	-634
▁trabaj	-635
▁llam	-636
▁human	-637
cul	-638
▁two	-639
▁been	-640
▁vez	-641
▁resp	-642
▁De	-643
iver	-644
▁lot	-645
ank	-646
▁There	-647
▁gran	-648
ical	-649
ne	-650
encia	-651
▁What	-652
▁her	-653
aron	-654
▁están	-655
echo	-656
▁ti	-657
▁personas	-658
▁tiene	-659
▁histor	-660
ence	-661
ittle	-662
▁así	-663
▁3	-664
int	-665
▁ter	-666
▁ag	-667
▁little	-668
▁problem	-669
▁int	-670
cial	-671
▁K	-672
▁ev	-673
▁col	-674
▁dos	-675
▁ra	-676
▁first	-677
▁differ	-678
mos	-679
ond	-680
ree	-681
ated	-682
entes	-683
▁idea	-684
▁exper	-685
ff	-686
▁ele	-687
ang	-688
▁Lo	-689
ento	-690
▁pos	-691
▁algun	-692
▁back	-693
▁where	-694
▁kind	-695
▁men	-696
000	-697
▁hace	-698
▁tenemos	-699
▁yo	-700
▁fin	-701
▁she	-702
ife	-703
▁Si	-704
uego	-705
▁sólo	-706
ific	-707
jer	-708
▁les	-709
▁does	-710
▁nuev	-711
▁mad	-712
▁cam	-713
▁cr	-714
▁over	-715
ord	-716
nolog	-717
▁also	-718
ueno	-719
way	-720
▁también	-721
▁pol	-722
uch	-723
res	-724
▁comple	-725
no	-726
▁than	-727
▁pregun	-728
▁plan	-729
ody	-730
▁mucho	-731
ck	-732
▁camb	-733
▁rel	-734
▁Well	-735
▁produ	-736
▁vida	-737
▁bien	-738
▁br	-739
▁estos	-740
▁hecho	-741
▁new	-742
ias	-743
▁pueden	-744
ced	-745
own	-746
reat	-747
▁ese	-748
▁esp	-749
uy	-750
▁tiemp	-751
ugar	-752
▁cor	-753
ular	-754
▁sec	-755
▁mod	-756
ick	-757
▁Los	-758
me	-759
are	-760
rib	-761
other	-762
racias	-763
ís	-764
man	-765
ase	-766
ito	-767
▁Al	-768
▁ahora	-769
sel	-770
▁those	-771
▁tu	-772
▁ind	-773
▁sent	-774
▁Ahora	-775
▁esa	-776
iar	-777
ory	-778
icos	-779
▁his	-780
▁tiempo	-781
ph	-782
▁Esto	-783
▁difer	-784
plic	-785
ict	-786
▁oc	-787
thing	-788
▁19	-789
▁imag	-790
ep	-791
▁Ent	-792
be	-793
▁trans	-794
▁realmente	-795
▁Q	-796
▁mej	-797
▁good	-798
da	-799
iero	-800
ds	-801
prend	-802
▁estas	-803
▁neces	-804
▁ins	-805
▁decir	-806
pres	-807
▁af	-808
▁cap	-809
ías	-810
ieron	-811
▁bet	-812
ish	-813
▁trat	-814
▁different	-815
ara	-816
▁lugar	-817
▁poc	-818
atur	-819
cent	-820
▁cada	-821
▁under	-822
ire	-823
ren	-824
endo	-825
aciones	-826
▁life	-827
▁ph	-828
▁aut	-829
▁mon	-830
▁pat	-831
▁happen	-832
▁ant	-833
▁Ind	-834
▁down	-835
▁show	-836
▁Entonces	-837
▁imp	-838
▁mom	-839
▁fu	-840
▁sy	-841
▁tienen	-842
▁most	-843
▁Me	-844
▁pa	-845
▁even	-846
▁bo	-847
íamos	-848
▁only	-849
▁5	-850
▁lib	-851
▁mat	-852
ass	-853
min	-854
▁bu	-855
▁hac	-856
erg	-857
▁tom	-858
▁sur	-859
▁many	-860
▁fo	-861
▁prop	-862
▁const	-863
row	-864
iente	-865
▁pres	-866
▁entre	-867
adas	-868
op	-869
▁otr	-870
▁tip	-871
almente	-872
▁cer	-873
▁tan	-874
▁tell	-875
▁mil	-876
▁inst	-877
▁day	-878
▁around	-879
tro	-880
▁estaba	-881
▁cent	-882
ak	-883
ning	-884
trar	-885
▁10	-886
▁simple	-887
▁bl	-888
▁fam	-889
▁4	-890
ied	-891
rough	-892
▁talk	-893
ador	-894
ful	-895
▁called	-896
ry	-897
erv	-898
▁er	-899
ting	-900
▁Esta	-901
▁peque	-902
ell	-903
ivo	-904
ought	-905
tern	-906
▁If	-907
▁dec	-908
▁Thank	-909
▁podemos	-910
ance	-911
xt	-912
▁vis	-913
mer	-914
▁enc	-915
▁manera	-916
▁otra	-917
▁cómo	-918
ange	-919
▁met	-920
▁Sh	-921
▁fl	-922
▁ej	-923
▁being	-924
▁anim	-925
▁come	-926
▁art	-927
quier	-928
▁spe	-929
▁mejor	-930
▁bas	-931
▁fact	-932
▁gener	-933
ons	-934
▁sup	-935
▁form	-936
▁mismo	-937
▁inform	-938
ista	-939
▁dise	-940
▁op	-941
▁parte	-942
▁take	-943
ations	-944
iones	-945
▁doing	-946
▁through	-947
▁sign	-948
ece	-949
▁big	-950
▁vol	-951
ten	-952
▁desc	-953
▁put	-954
omb	-955
aban	-956
▁ellos	-957
▁forma	-958
▁estamos	-959
otros	-960
▁20	-961
▁let	-962
▁han	-963
▁econ	-964
▁child	-965
uro	-966
▁desp	-967
▁Este	-968
▁three	-969
▁mov	-970
▁same	-971
body	-972
icas	-973
ave	-974
ents	-975
wn	-976
▁realidad	-977
Qué	-978
ary	-979
ino	-980
▁sub	-981
▁use	-982
▁Bueno	-983
ués	-984
▁Ten	-985
▁hear	-986
ile	-987
uel	-988
▁dijo	-989
ciones	-990
iva	-991
antes	-992
▁comm	-993
▁min	-994
usted	-995
▁podr	-996
▁entonces	-997
ble	-998
▁poco	-999
ale	-1000
cho	-1001
▁Hay	-1002
ema	-1003
get	-1004
▁había	-1005
és	-1006
▁dr	-1007
▁historia	-1008
▁coun	-1009
ga	-1010
je	-1011
ors	-1012
ious	-1013
nos	-1014
ject	-1015
ecto	-1016
▁dist	-1017
▁univer	-1018
par	-1019
▁donde	-1020
▁usted	-1021
tos	-1022
▁ya	-1023
▁dur	-1024
▁play	-1025
▁exp	-1026
rect	-1027
▁try	-1028
▁mujer	-1029
und	-1030
urn	-1031
▁How	-1032
▁bus	-1033
▁cual	-1034
▁didn	-1035
▁encon	-1036
▁sig	-1037
▁sc	-1038
▁well	-1039
▁planet	-1040
▁agu	-1041
▁quest	-1042
▁why	-1043
▁necesit	-1044
▁espe	-1045
arse	-1046
igh	-1047
idos	-1048
ating	-1049
▁wr	-1050
aría	-1051
▁mean	-1052
▁tipo	-1053
jos	-1054
▁reg	-1055
▁prof	-1056
▁great	-1057
enta	-1058
▁lar	-1059
▁millones	-1060
▁cult	-1061
we	-1062
▁again	-1063
▁tener	-1064
▁mos	-1065
▁mayor	-1066
▁nosotros	-1067
ña	-1068
▁India	-1069
ty	-1070
▁llev	-1071
▁sist	-1072
▁verdad	-1073
▁constru	-1074
ja	-1075
ana	-1076
▁wom	-1077
ew	-1078
olut	-1079
▁bel	-1080
▁tech	-1081
cess	-1082
▁expl	-1083
▁problema	-1084
▁luego	-1085
át	-1086
▁él	-1087
▁niños	-1088
ciendo	-1089
▁fuer	-1090
▁long	-1091
ates	-1092
ves	-1093
▁buen	-1094
▁desde	-1095
ano	-1096
▁día	-1097
▁cour	-1098
▁made	-1099
▁dem	-1100
▁ven	-1101
▁otro	-1102
▁should	-1103
▁sort	-1104
az	-1105
,000	-1106
▁percent	-1107
▁sm	-1108
▁find	-1109
▁went	-1110
ically	-1111
▁pun	-1112
▁Com	-1113
▁comput	-1114
▁hablar	-1115
als	-1116
▁mir	-1117
▁gust	-1118
ob	-1119
▁ah	-1120
stem	-1121
▁ir	-1122
▁off	-1123
▁estar	-1124
▁ú	-1125
ics	-1126
cil	-1127
ise	-1128
▁mal	-1129
cept	-1130
▁estud	-1131
▁story	-1132
▁ext	-1133
ins	-1134
▁St	-1135
▁Eso	-1136
▁course	-1137
self	-1138
▁creo	-1139
▁va	-1140
▁sit	-1141
▁elect	-1142
▁interest	-1143
ars	-1144
igo	-1145
▁pregunt	-1146
ah	-1147
lt	-1148
vers	-1149
▁Las	-1150
▁conf	-1151
ama	-1152
inci	-1153
▁equ	-1154
▁liv	-1155
▁feel	-1156
▁bi	-1157
ario	-1158
▁last	-1159
▁sí	-1160
▁dat	-1161
▁incre	-1162
▁Bec	-1163
▁deb	-1164
ilidad	-1165
▁menos	-1166
▁exam	-1167
▁dar	-1168
▁him	-1169
▁hasta	-1170
ít	-1171
▁Because	-1172
▁important	-1173
ower	-1174
▁después	-1175
▁importante	-1176
iencia	-1177
ran	-1178
anto	-1179
▁lear	-1180
▁An	-1181
▁estoy	-1182
▁trabajo	-1183
▁quer	-1184
▁nuestra	-1185
duc	-1186
▁nuestro	-1187
iene	-1188
▁call	-1189
ft	-1190
▁own	-1191
▁system	-1192
▁progr	-1193
gar	-1194
▁bra	-1195
▁tec	-1196
▁another	-1197
fore	-1198
▁emp	-1199
▁stud	-1200
▁Cu	-1201
▁model	-1202
▁interes	-1203
ger	-1204
ior	-1205
po	-1206
▁dó	-1207
emplo	-1208
▁energ	-1209
▁val	-1210
▁ustedes	-1211
▁grand	-1212
▁¡	-1213
iment	-1214
▁sea	-1215
▁acer	-1216
▁started	-1217
▁thought	-1218
▁Qu	-1219
adores	-1220
▁hemos	-1221
gen	-1222
ense	-1223
▁hel	-1224
▁país	-1225
▁Porque	-1226
▁suced	-1227
▁partic	-1228
▁mus	-1229
▁rem	-1230
▁countr	-1231
▁organ	-1232
▁econom	-1233
▁natur	-1234
▁fut	-1235
▁todas	-1236
▁funcion	-1237
ks	-1238
pez	-1239
uesto	-1240
▁nada	-1241
amiento	-1242
ric	-1243
ruct	-1244
frica	-1245
▁end	-1246
ition	-1247
br	-1248
▁Con	-1249
ombre	-1250
▁agua	-1251
▁exist	-1252
bl	-1253
med	-1254
des	-1255
empre	-1256
▁quiero	-1257
ize	-1258
▁bit	-1259
ities	-1260
form	-1261
▁change	-1262
▁underst	-1263
▁hi	-1264
▁str	-1265
▁viv	-1266
▁primer	-1267
▁def	-1268
▁bot	-1269
▁came	-1270
▁today	-1271
▁Gracias	-1272
▁ejemplo	-1273
aje	-1274
▁tres	-1275
▁lu	-1276
vert	-1277
▁won	-1278
ues	-1279
▁ask	-1280
▁extra	-1281
▁princi	-1282
▁Is	-1283
▁nuevo	-1284
▁Yo	-1285
▁never	-1286
▁poder	-1287
lect	-1288
▁voy	-1289
▁technolog	-1290
unca	-1291
▁design	-1292
▁muchos	-1293
▁veces	-1294
▁aprend	-1295
▁super	-1296
▁saben	-1297
ath	-1298
lic	-1299
oso	-1300
▁año	-1301
▁comen	-1302
▁still	-1303
▁water	-1304
▁cosa	-1305
ather	-1306
ital	-1307
old	-1308
ved	-1309
ands	-1310
▁últ	-1311
lus	-1312
▁din	-1313
▁build	-1314
▁result	-1315
▁mí	-1316
chool	-1317
▁When	-1318
▁pien	-1319
▁tecnolog	-1320
▁doesn	-1321
oci	-1322
▁pal	-1323
▁dice	-1324
kes	-1325
▁tenía	-1326
▁momento	-1327
▁Tod	-1328
▁cier	-1329
▁after	-1330
bo	-1331
itar	-1332
▁question	-1333
▁Le	-1334
▁var	-1335
▁love	-1336
▁Cuando	-1337
▁better	-1338
▁give	-1339
▁haciendo	-1340
vel	-1341
▁comun	-1342
▁empez	-1343
pa	-1344
urr	-1345
▁hoy	-1346
▁turn	-1347
▁contro	-1348
icamente	-1349
▁rest	-1350
áp	-1351
▁product	-1352
▁200	-1353
▁found	-1354
▁Re	-1355
▁rob	-1356
▁muchas	-1357
▁unos	-1358
▁av	-1359
▁cab	-1360
guien	-1361
óm	-1362
aces	-1363
▁its	-1364
▁6	-1365
▁ella	-1366
▁few	-1367
ución	-1368
ork	-1369
tain	-1370
▁ago	-1371
▁famil	-1372
ima	-1373
▁baj	-1374
▁She	-1375
▁minut	-1376
car	-1377
ited	-1378
▁...	-1379
▁bar	-1380
▁sci	-1381
▁cere	-1382
▁segu	-1383
▁before	-1384
▁contin	-1385
▁ing	-1386
▁school	-1387
ieve	-1388
ways	-1389
▁Pue	-1390
▁guy	-1391
ility	-1392
▁Aquí	-1393
▁allí	-1394
▁point	-1395
▁É	-1396
▁durante	-1397
▁env	-1398
▁gra	-1399
▁too	-1400
ator	-1401
▁rep	-1402
cción	-1403
▁might	-1404
ene	-1405
▁fot	-1406
▁antes	-1407
ena	-1408
▁next	-1409
ily	-1410
read	-1411
▁kid	-1412
▁These	-1413
▁ideas	-1414
▁princip	-1415
▁ke	-1416
▁lí	-1417
ustr	-1418
▁Here	-1419
▁segun	-1420
anz	-1421
qué	-1422
idas	-1423
ivid	-1424
▁four	-1425
ED	-1426
▁gracias	-1427
▁understand	-1428
arl	-1429
cid	-1430
▁30	-1431
atch	-1432
▁soci	-1433
▁hacia	-1434
ys	-1435
ala	-1436
▁ay	-1437
▁One	-1438
▁habl	-1439
▁read	-1440
af	-1441
▁Una	-1442
▁second	-1443
ste	-1444
ward	-1445
▁acerca	-1446
▁power	-1447
▁tanto	-1448
▁siempre	-1449
▁50	-1450
▁ahí	-1451
▁fil	-1452
▁sido	-1453
iera	-1454
▁children	-1455
▁obs	-1456
▁hacerlo	-1457
▁Much	-1458
ám	-1459
▁9	-1460
ional	-1461
▁educ	-1462
▁mater	-1463
▁sistema	-1464
▁pel	-1465
ogra	-1466
ícul	-1467
▁Amer	-1468
▁Bien	-1469
gether	-1470
▁China	-1471
▁algunos	-1472
▁tend	-1473
▁place	-1474
ican	-1475
▁exact	-1476
▁primera	-1477
▁raz	-1478
▁tem	-1479
▁used	-1480
▁hacen	-1481
ts	-1482
ánd	-1483
ición	-1484
ving	-1485
▁abs	-1486
▁app	-1487
▁book	-1488
▁learn	-1489
▁together	-1490
ental	-1491
▁toda	-1492
▁old	-1493
▁z	-1494
▁sl	-1495
Cómo	-1496
arro	-1497
fect	-1498
▁otros	-1499
▁always	-1500
▁escuch	-1501
▁high	-1502
▁Cre	-1503
ientos	-1504
▁whole	-1505
▁pensar	-1506
▁15	-1507
▁glo	-1508
▁mor	-1509
▁mot	-1510
ature	-1511
▁especi	-1512
ably	-1513
edor	-1514
ender	-1515
▁vide	-1516
▁otras	-1517
▁nuestros	-1518
gin	-1519
jar	-1520
avor	-1521
ative	-1522
▁each	-1523
▁solo	-1524
iter	-1525
▁light	-1526
▁looking	-1527
ood	-1528
ots	-1529
▁amb	-1530
▁rev	-1531
▁pregunta	-1532
ps	-1533
ér	-1534
mit	-1535
▁To	-1536
▁vi	-1537
ists	-1538
▁All	-1539
▁done	-1540
▁decid	-1541
▁example	-1542
uv	-1543
inar	-1544
▁grow	-1545
▁My	-1546
▁pon	-1547
▁pret	-1548
▁pub	-1549
▁ref	-1550
▁mujeres	-1551
ál	-1552
Por	-1553
ail	-1554
osa	-1555
▁gu	-1556
▁fel	-1557
▁nunca	-1558
▁social	-1559
irl	-1560
ween	-1561
▁100	-1562
▁hor	-1563
▁num	-1564
▁ráp	-1565
▁dije	-1566
astante	-1567
llo	-1568
uff	-1569
▁Mi	-1570
▁commun	-1571
▁dep	-1572
▁million	-1573
▁tecnología	-1574
ativ	-1575
ín	-1576
▁small	-1577
acion	-1578
▁cualquier	-1579
▁particular	-1580
lop	-1581
▁pap	-1582
ms	-1583
▁7	-1584
▁move	-1585
▁reci	-1586
▁quite	-1587
▁invest	-1588
ont	-1589
▁mas	-1590
entro	-1591
▁compr	-1592
wer	-1593
▁da	-1594
iliz	-1595
▁TED	-1596
▁pad	-1597
▁sens	-1598
▁loc	-1599
▁deber	-1600
▁women	-1601
▁pu	-1602
ract	-1603
▁able	-1604
▁algunas	-1605
bal	-1606
▁Intern	-1607
▁between	-1608
▁18	-1609
▁ho	-1610
▁Let	-1611
▁conv	-1612
uela	-1613
▁esas	-1614
imiento	-1615
▁technology	-1616
▁ayud	-1617
▁favor	-1618
jet	-1619
▁Ell	-1620
▁bre	-1621
▁van	-1622
idades	-1623
▁Or	-1624
▁difí	-1625
▁esos	-1626
ness	-1627
▁Why	-1628
ierra	-1629
▁wanted	-1630
▁alguien	-1631
▁bastante	-1632
ider	-1633
▁cell	-1634
▁happened	-1635
▁dic	-1636
▁cereb	-1637
▁mes	-1638
▁diferentes	-1639
bor	-1640
ern	-1641
ita	-1642
pos	-1643
▁cir	-1644
ience	-1645
▁medio	-1646
ús	-1647
anc	-1648
▁char	-1649
▁comenz	-1650
▁descub	-1651
▁estado	-1652
tas	-1653
▁trad	-1654
portun	-1655
▁comes	-1656
▁supuesto	-1657
kay	-1658
▁Oh	-1659
▁help	-1660
ines	-1661
▁poss	-1662
▁punto	-1663
wh	-1664
alth	-1665
ized	-1666
▁cur	-1667
▁pict	-1668
aut	-1669
▁Des	-1670
▁emb	-1671
▁mem	-1672
▁id	-1673
arlo	-1674
arth	-1675
▁hard	-1676
▁desarro	-1677
▁8	-1678
ato	-1679
izo	-1680
ings	-1681
▁der	-1682
▁tot	-1683
▁away	-1684
zo	-1685
iere	-1686
istas	-1687
▁tengo	-1688
oney	-1689
pect	-1690
▁bill	-1691
▁proy	-1692
iel	-1693
▁far	-1694
uesta	-1695
▁grandes	-1696
iado	-1697
▁det	-1698
▁esper	-1699
cle	-1700
velop	-1701
▁relig	-1702
▁increí	-1703
▁project	-1704
cu	-1705
▁vac	-1706
ifica	-1707
▁cuenta	-1708
luso	-1709
nect	-1710
cio	-1711
ket	-1712
ument	-1713
▁says	-1714
ba	-1715
ades	-1716
▁hic	-1717
▁brain	-1718
▁Internet	-1719
▁thinking	-1720
▁evol	-1721
▁control	-1722
▁stuff	-1723
rededor	-1724
él	-1725
gos	-1726
iness	-1727
▁palab	-1728
▁har	-1729
▁mag	-1730
▁pop	-1731
▁vie	-1732
▁took	-1733
▁vuel	-1734
▁trying	-1735
▁mostrar	-1736
▁food	-1737
▁direct	-1738
▁believe	-1739
▁Como	-1740
▁dest	-1741
▁lead	-1742
▁individ	-1743
orn	-1744
▁podría	-1745
▁alrededor	-1746
▁vir	-1747
▁less	-1748
▁reas	-1749
▁everything	-1750
▁norm	-1751
▁vamos	-1752
▁lim	-1753
▁persona	-1754
▁ún	-1755
▁cle	-1756
▁plant	-1757
▁consum	-1758
▁pretty	-1759
▁á	-1760
imo	-1761
▁aún	-1762
ancia	-1763
ienen	-1764
▁list	-1765
▁beh	-1766
▁bueno	-1767
ational	-1768
▁Tenemos	-1769
▁interesting	-1770
▁run	-1771
▁grup	-1772
▁live	-1773
ientes	-1774
selves	-1775
rit	-1776
inas	-1777
▁wonder	-1778
til	-1779
▁head	-1780
▁chang	-1781
▁problemas	-1782
▁casi	-1783
▁repres	-1784
▁ans	-1785
▁exc	-1786
▁develop	-1787
ever	-1788
▁lleg	-1789
▁encontr	-1790
▁nuestras	-1791
gur	-1792
ientras	-1793
ñas	-1794
▁Ar	-1795
▁má	-1796
▁Pod	-1797
acter	-1798
▁cuer	-1799
▁five	-1800
▁modo	-1801
▁video	-1802
ablemente	-1803
▁New	-1804
▁gre	-1805
▁rad	-1806
ember	-1807
▁best	-1808
▁ever	-1809
▁goes	-1810
▁vers	-1811
cy	-1812
óg	-1813
nde	-1814
ret	-1815
una	-1816
▁OK	-1817
▁gl	-1818
imes	-1819
▁mic	-1820
▁casa	-1821
▁home	-1822
▁mach	-1823
▁seem	-1824
▁activ	-1825
▁escrib	-1826
▁working	-1827
ría	-1828
omet	-1829
▁obv	-1830
▁war	-1831
emente	-1832
▁trata	-1833
rop	-1834
atro	-1835
izar	-1836
▁dólar	-1837
▁difícil	-1838
▁información	-1839
ird	-1840
jas	-1841
vern	-1842
▁blo	-1843
▁red	-1844
▁muer	-1845
▁investig	-1846
cin	-1847
ross	-1848
▁alg	-1849
▁termin	-1850
▁talking	-1851
rar	-1852
▁piens	-1853
▁pasado	-1854
▁personal	-1855
ío	-1856
▁Do	-1857
▁eng	-1858
▁fund	-1859
▁orig	-1860
▁getting	-1861
alf	-1862
urb	-1863
▁alm	-1864
▁neg	-1865
▁grande	-1866
▁public	-1867
▁cerebro	-1868
▁anything	-1869
▁'	-1870
▁[	-1871
▁Nos	-1872
▁tuv	-1873
▁Creo	-1874
▁else	-1875
▁final	-1876
▁dinero	-1877
▁encontrar	-1878
▁significa	-1879
ron	-1880
▁gan	-1881
▁wal	-1882
▁coming	-1883
▁natural	-1884
.000	-1885
ismo	-1886
▁misma	-1887
▁become	-1888
▁cambio	-1889
▁sé	-1890
ures	-1891
▁For	-1892
▁prot	-1893
▁beaut	-1894
▁enfer	-1895
▁espaci	-1896
ouse	-1897
▁God	-1898
▁jun	-1899
▁luz	-1900
▁hizo	-1901
▁global	-1902
ner	-1903
▁Af	-1904
▁Son	-1905
▁cambiar	-1906
avía	-1907
▁dig	-1908
▁care	-1909
▁eran	-1910
▁situ	-1911
▁means	-1912
▁money	-1913
▁absolut	-1914
▁diferente	-1915
ex	-1916
▁Para	-1917
▁descubr	-1918
rob	-1919
ceso	-1920
ffect	-1921
uerdo	-1922
▁kids	-1923
▁sino	-1924
miento	-1925
▁extre	-1926
▁miles	-1927
▁polít	-1928
▁probably	-1929
adie	-1930
anda	-1931
arly	-1932
élul	-1933
▁sor	-1934
▁frien	-1935
▁intent	-1936
▁connect	-1937
hip	-1938
▁fas	-1939
▁fig	-1940
iting	-1941
▁mind	-1942
▁sigu	-1943
▁enough	-1944
por	-1945
▁lado	-1946
▁usar	-1947
▁sense	-1948
▁sound	-1949
▁observ	-1950
▁12	-1951
▁fá	-1952
inos	-1953
▁Dios	-1954
▁caus	-1955
▁Quiero	-1956
ade	-1957
cel	-1958
▁clar	-1959
▁doll	-1960
▁ense	-1961
▁increíble	-1962
▁giv	-1963
▁serv	-1964
▁haber	-1965
▁parece	-1966
oh	-1967
iud	-1968
tes	-1969
▁dir	-1970
▁ig	-1971
▁nú	-1972
eras	-1973
▁set	-1974
adora	-1975
▁cant	-1976
▁sing	-1977
▁dentro	-1978
▁hombre	-1979
▁experiment	-1980
▁Á	-1981
maz	-1982
▁Go	-1983
▁pes	-1984
ments	-1985
▁open	-1986
▁somos	-1987
▁making	-1988
▁happens	-1989
ng	-1990
che	-1991
ism	-1992
▁aud	-1993
▁suc	-1994
▁quiz	-1995
▁viol	-1996
▁wrong	-1997
▁health	-1998
▁present	-1999
nov	-2000
▁ed	-2001
▁hand	-2002
▁madre	-2003
▁month	-2004
▁puedo	-2005
▁times	-2006
▁moment	-2007
▁dólares	-2008
lev	-2009
urs	-2010
▁sil	-2011
▁países	-2012
▁ey	-2013
ices	-2014
ples	-2015
ural	-2016
▁maybe	-2017
▁quier	-2018
cir	-2019
iles	-2020
isto	-2021
ories	-2022
▁speci	-2023
▁teach	-2024
▁matter	-2025
▁program	-2026
▁sentido	-2027
Cu	-2028
▁soy	-2029
ately	-2030
▁cierto	-2031
▁mayoría	-2032
ert	-2033
iss	-2034
▁pot	-2035
▁Okay	-2036
▁ciud	-2037
▁data	-2038
▁energía	-2039
▁ca	-2040
▁saw	-2041
▁body	-2042
▁ning	-2043
▁invent	-2044
▁number	-2045
▁information	-2046
▁pi	-2047
engu	-2048
▁map	-2049
▁disc	-2050
▁logr	-2051
▁Earth	-2052
▁fuera	-2053
▁biolog	-2054
▁picture	-2055
llow	-2056
▁demo	-2057
▁llama	-2058
▁Muchas	-2059
gl	-2060
▁ps	-2061
▁top	-2062
▁wee	-2063
▁apar	-2064
▁begin	-2065
gest	-2066
where	-2067
▁left	-2068
▁incred	-2069
▁posible	-2070
▁interesante	-2071
ono	-2072
bier	-2073
ilar	-2074
▁mant	-2075
▁datos	-2076
▁liter	-2077
▁recon	-2078
eo	-2079
ét	-2080
ris	-2081
▁leg	-2082
▁York	-2083
▁disco	-2084
▁looks	-2085
▁makes	-2086
▁country	-2087
▁univers	-2088
▁Am	-2089
▁razón	-2090
▁seman	-2091
▁Africa	-2092
bol	-2093
▁Sí	-2094
▁prov	-2095
▁pequeño	-2096
én	-2097
ark	-2098
ike	-2099
▁sk	-2100
bamos	-2101
▁grou	-2102
▁inte	-2103
dos	-2104
▁caso	-2105
▁girl	-2106
▁half	-2107
▁terr	-2108
▁true	-2109
▁mucha	-2110
▁planeta	-2111
ush	-2112
▁bad	-2113
▁eas	-2114
allen	-2115
arles	-2116
olution	-2117
▁countries	-2118
▁respuesta	-2119
▁add	-2120
▁mer	-2121
ables	-2122
▁innov	-2123
▁quien	-2124
iet	-2125
las	-2126
▁Ex	-2127
▁Pr	-2128
itos	-2129
▁Then	-2130
▁clim	-2131
▁cuatro	-2132
▁complic	-2133
▁universe	-2134
ará	-2135
▁Can	-2136
press	-2137
▁line	-2138
▁prom	-2139
▁seen	-2140
▁defin	-2141
▁ocurr	-2142
▁space	-2143
▁contra	-2144
▁transform	-2145
cep	-2146
▁et	-2147
▁via	-2148
▁conse	-2149
▁salud	-2150
▁puedes	-2151
▁estaban	-2152
▁incluso	-2153
▁perfect	-2154
▁process	-2155
eah	-2156
▁dé	-2157
▁sw	-2158
▁vo	-2159
ivos	-2160
ying	-2161
▁bás	-2162
▁dev	-2163
▁fal	-2164
▁hub	-2165
▁kil	-2166
▁días	-2167
▁test	-2168
▁Every	-2169
▁Todos	-2170
▁enorm	-2171
▁enseñ	-2172
▁basically	-2173
dic	-2174
▁job	-2175
▁comb	-2176
▁fant	-2177
▁pain	-2178
▁pass	-2179
▁phot	-2180
▁muest	-2181
igos	-2182
▁sex	-2183
isión	-2184
▁Está	-2185
▁También	-2186
▁complete	-2187
▁fa	-2188
▁mús	-2189
earch	-2190
▁room	-2191
▁told	-2192
▁using	-2193
▁alguna	-2194
▁science	-2195
▁EE	-2196
▁agr	-2197
▁cou	-2198
▁ways	-2199
ombres	-2200
▁diseñ	-2201
tamente	-2202
▁inside	-2203
añ	-2204
iron	-2205
▁cho	-2206
▁intel	-2207
▁Univer	-2208
▁fueron	-2209
ím	-2210
aps	-2211
▁air	-2212
▁watch	-2213
▁compan	-2214
▁future	-2215
atos	-2216
cido	-2217
fico	-2218
▁dra	-2219
▁amaz	-2220
▁side	-2221
▁cerca	-2222
▁ident	-2223
▁saber	-2224
▁visto	-2225
▁mother	-2226
▁lugares	-2227
its	-2228
lly	-2229
uge	-2230
▁40	-2231
▁Im	-2232
anos	-2233
▁Not	-2234
avill	-2235
▁govern	-2236
▁material	-2237
▁25	-2238
ases	-2239
▁cra	-2240
▁objet	-2241
▁vemos	-2242
▁answer	-2243
▁estudi	-2244
cr	-2245
eros	-2246
▁Uno	-2247
▁cin	-2248
▁sue	-2249
▁insp	-2250
▁pasa	-2251
▁cuerpo	-2252
▁billion	-2253
▁ret	-2254
▁ést	-2255
▁nive	-2256
▁cuest	-2257
▁woman	-2258
▁conect	-2259
▁diseño	-2260
▁dollars	-2261
▁hacemos	-2262
óx	-2263
vés	-2264
▁futuro	-2265
▁record	-2266
ton	-2267
angu	-2268
▁redu	-2269
▁heard	-2270
▁encant	-2271
▁humanos	-2272
▁llamado	-2273
▁respons	-2274
▁sabemos	-2275
▁without	-2276
▁simplemente	-2277
ead	-2278
enci	-2279
▁six	-2280
▁grupo	-2281
▁través	-2282
▁compart	-2283
0.	-2284
▁Él	-2285
▁Les	-2286
▁bro	-2287
▁máqu	-2288
▁comer	-2289
▁music	-2290
▁energy	-2291
▁reason	-2292
▁África	-2293
▁todavía	-2294
▁proyecto	-2295
yp	-2296
cas	-2297
dle	-2298
▁jo	-2299
▁Man	-2300
▁later	-2301
▁nueva	-2302
▁imagin	-2303
▁environ	-2304
mas	-2305
▁bene	-2306
▁asked	-2307
▁buena	-2308
▁maravill	-2309
osp	-2310
rón	-2311
eles	-2312
▁att	-2313
▁sac	-2314
▁must	-2315
▁libro	-2316
▁segur	-2317
▁stand	-2318
▁create	-2319
▁looked	-2320
▁correct	-2321
ró	-2322
ram	-2323
▁hour	-2324
▁célul	-2325
▁animal	-2326
▁family	-2327
abilidad	-2328
▁amazing	-2329
▁espacio	-2330
▁nothing	-2331
ilt	-2332
▁dia	-2333
▁dónde	-2334
▁young	-2335
iamente	-2336
▁saying	-2337
▁escuela	-2338
ral	-2339
▁tre	-2340
▁Todo	-2341
▁hope	-2342
▁neur	-2343
▁contr	-2344
▁gusta	-2345
▁juego	-2346
▁living	-2347
adamente	-2348
▁az	-2349
▁ut	-2350
▁isn	-2351
▁success	-2352
viv	-2353
ique	-2354
▁fre	-2355
▁bajo	-2356
▁guer	-2357
▁such	-2358
▁cient	-2359
▁sería	-2360
▁almost	-2361
▁imagen	-2362
▁enfermed	-2363
▁remember	-2364
oca	-2365
ream	-2366
▁Fue	-2367
▁days	-2368
▁qued	-2369
▁embar	-2370
▁comida	-2371
ime	-2372
úbl	-2373
▁hon	-2374
▁Some	-2375
▁thous	-2376
▁follow	-2377
▁impact	-2378
▁beautif	-2379
▁ciencia	-2380
▁research	-2381
▁individual	-2382
los	-2383
ury	-2384
▁Su	-2385
▁dom	-2386
▁oper	-2387
▁phys	-2388
▁Estamos	-2389
▁general	-2390
▁electric	-2391
▁X	-2392
amp	-2393
iste	-2394
▁Era	-2395
▁Esa	-2396
▁emo	-2397
▁across	-2398
▁cientí	-2399
▁intelig	-2400
▁necesitamos	-2401
▁both	-2402
▁inde	-2403
ats	-2404
com	-2405
eno	-2406
▁At	-2407
aria	-2408
arnos	-2409
▁case	-2410
▁cost	-2411
▁lives	-2412
▁nadie	-2413
▁polit	-2414
▁places	-2415
▁funciona	-2416
▁gustaría	-2417
pend	-2418
▁pie	-2419
▁keep	-2420
▁parec	-2421
▁pequeña	-2422
▁segundo	-2423
▁mientras	-2424
gra	-2425
itut	-2426
unch	-2427
uras	-2428
▁Euro	-2429
▁Estos	-2430
▁crear	-2431
▁poner	-2432
▁works	-2433
▁gobier	-2434
▁visual	-2435
▁problems	-2436
arr	-2437
gas	-2438
▁mid	-2439
▁web	-2440
▁líne	-2441
ention	-2442
▁hombres	-2443
▁proceso	-2444
UU	-2445
oma	-2446
oth	-2447
uck	-2448
▁Ya	-2449
▁civ	-2450
arios	-2451
▁notic	-2452
▁podía	-2453
▁partes	-2454
▁industr	-2455
ibu	-2456
igu	-2457
ogn	-2458
▁dej	-2459
▁algún	-2460
▁prote	-2461
▁cancer	-2462
▁certain	-2463
▁possible	-2464
ets	-2465
abor	-2466
▁che	-2467
▁past	-2468
▁igual	-2469
▁meses	-2470
▁explor	-2471
▁figure	-2472
▁single	-2473
▁consider	-2474
▁siguiente	-2475
▁environment	-2476
ape	-2477
ira	-2478
oss	-2479
íst	-2480
ológ	-2481
▁señ	-2482
aleza	-2483
ction	-2484
ision	-2485
▁infl	-2486
▁news	-2487
▁once	-2488
▁color	-2489
▁fácil	-2490
▁medic	-2491
▁experience	-2492
▁bomb	-2493
▁lots	-2494
▁langu	-2495
▁Pueden	-2496
▁conoci	-2497
▁engine	-2498
▁business	-2499
▁trabajar	-2500
zas	-2501
ages	-2502
echa	-2503
mero	-2504
▁Par	-2505
ortun	-2506
ramos	-2507
▁conc	-2508
▁demas	-2509
▁equiv	-2510
▁sufic	-2511
▁quiere	-2512
▁challen	-2513
▁oportun	-2514
▁beautiful	-2515
▁“	-2516
ajo	-2517
ást	-2518
▁wa	-2519
ined	-2520
rodu	-2521
itive	-2522
▁niño	-2523
▁requ	-2524
ulation	-2525
▁explic	-2526
▁tienes	-2527
▁discover	-2528
ik	-2529
éd	-2530
▁os	-2531
erse	-2532
ters	-2533
▁bab	-2534
▁paci	-2535
▁padre	-2536
▁primero	-2537
▁building	-2538
ós	-2539
ane	-2540
ians	-2541
land	-2542
▁perd	-2543
▁públ	-2544
▁often	-2545
▁tomar	-2546
▁history	-2547
▁animales	-2548
▁entender	-2549
ash	-2550
▁Pe	-2551
omos	-2552
orte	-2553
▁err	-2554
▁mam	-2555
▁sum	-2556
ograph	-2557
▁Estas	-2558
▁couple	-2559
▁quería	-2560
▁acuerdo	-2561
ór	-2562
outh	-2563
▁199	-2564
▁oce	-2565
▁debe	-2566
▁guys	-2567
▁Right	-2568
▁Tierra	-2569
▁amigos	-2570
▁expect	-2571
▁months	-2572
▁signific	-2573
▁desarroll	-2574
▁everybody	-2575
▁represent	-2576
cra	-2577
ock	-2578
ump	-2579
▁CA	-2580
▁ef	-2581
ocup	-2582
ulta	-2583
ently	-2584
uales	-2585
ucion	-2586
▁priv	-2587
▁walk	-2588
▁word	-2589
undred	-2590
▁built	-2591
▁labor	-2592
▁robot	-2593
▁Ha	-2594
▁mol	-2595
▁pud	-2596
▁sel	-2597
ready	-2598
▁hice	-2599
▁sure	-2600
▁quick	-2601
▁ciudad	-2602
▁compañ	-2603
▁intern	-2604
▁llegar	-2605
▁especie	-2606
▁ale	-2607
▁tar	-2608
▁aver	-2609
▁volv	-2610
iously	-2611
▁bring	-2612
▁scient	-2613
▁interact	-2614
▁happening	-2615
▁On	-2616
▁fi	-2617
▁fall	-2618
▁pred	-2619
▁cinco	-2620
▁having	-2621
▁imagine	-2622
▁machine	-2623
▁preocup	-2624
▁computer	-2625
ety	-2626
empl	-2627
ener	-2628
gres	-2629
icio	-2630
jeron	-2631
▁arte	-2632
▁huge	-2633
▁estad	-2634
▁invol	-2635
▁fundam	-2636
▁myself	-2637
▁complex	-2638
rá	-2639
▁éx	-2640
cado	-2641
▁flu	-2642
▁ris	-2643
▁auto	-2644
▁claro	-2645
▁recib	-2646
▁empres	-2647
▁organiz	-2648
▁stories	-2649
▁diferencia	-2650
ken	-2651
▁beb	-2652
▁pan	-2653
▁yet	-2654
iales	-2655
istic	-2656
▁aque	-2657
▁corr	-2658
▁stat	-2659
quiera	-2660
▁Algun	-2661
▁United	-2662
▁similar	-2663
▁completely	-2664
▁Be	-2665
▁foc	-2666
ieran	-2667
ograf	-2668
ático	-2669
▁cabe	-2670
▁cono	-2671
▁evid	-2672
uencia	-2673
▁Luego	-2674
▁allow	-2675
▁número	-2676
▁profes	-2677
▁already	-2678
▁probablemente	-2679
ames	-2680
▁ass	-2681
▁stop	-2682
▁class	-2683
▁ellas	-2684
▁market	-2685
side	-2686
▁Sin	-2687
▁Uds	-2688
▁cán	-2689
▁disp	-2690
▁incl	-2691
▁vent	-2692
▁equip	-2693
▁level	-2694
▁local	-2695
▁became	-2696
▁modern	-2697
▁cantidad	-2698
▁historias	-2699
ola	-2700
less	-2701
▁win	-2702
▁film	-2703
▁pare	-2704
▁próx	-2705
▁Estoy	-2706
▁solar	-2707
▁respon	-2708
▁exactly	-2709
▁perspect	-2710
▁Ah	-2711
▁Joh	-2712
▁mult	-2713
ención	-2714
▁turns	-2715
▁actual	-2716
▁cáncer	-2717
▁nature	-2718
▁familia	-2719
▁friends	-2720
▁hundred	-2721
▁patient	-2722
▁someone	-2723
ai	-2724
ata	-2725
elo	-2726
ote	-2727
ware	-2728
▁Imag	-2729
▁carb	-2730
▁largo	-2731
▁effect	-2732
▁estruct	-2733
▁especial	-2734
▁construir	-2735
▁wonderful	-2736
0,	-2737
udo	-2738
ches	-2739
▁acc	-2740
ibles	-2741
▁mano	-2742
▁unas	-2743
▁house	-2744
▁lengu	-2745
▁solut	-2746
▁viene	-2747
▁listen	-2748
▁animals	-2749
▁disease	-2750
fo	-2751
▁oí	-2752
enas	-2753
▁tas	-2754
▁conoc	-2755
▁hijos	-2756
▁couldn	-2757
▁Podemos	-2758
▁aliment	-2759
ged	-2760
lam	-2761
riba	-2762
▁Hab	-2763
▁doc	-2764
▁iss	-2765
▁John	-2766
▁Just	-2767
▁prev	-2768
▁cells	-2769
▁clase	-2770
▁group	-2771
▁large	-2772
▁nivel	-2773
▁éxito	-2774
▁camino	-2775
▁compet	-2776
▁rápido	-2777
▁decided	-2778
▁embargo	-2779
▁películ	-2780
▁May	-2781
▁Pro	-2782
▁Sab	-2783
▁pet	-2784
▁dicen	-2785
▁media	-2786
▁música	-2787
▁convert	-2788
▁demasiado	-2789
app	-2790
das	-2791
unt	-2792
isis	-2793
ount	-2794
▁fís	-2795
▁encu	-2796
▁ones	-2797
encial	-2798
▁within	-2799
▁continu	-2800
▁palabras	-2801
▁government	-2802
▁Z	-2803
ium	-2804
▁Em	-2805
▁Ob	-2806
alax	-2807
anza	-2808
omas	-2809
▁Cal	-2810
▁cop	-2811
▁hosp	-2812
▁name	-2813
▁wasn	-2814
▁adult	-2815
▁close	-2816
▁Unidos	-2817
▁células	-2818
ws	-2819
▁	-2820
e	-2821
a	-2822
o	-2823
s	-2824
t	-2825
n	-2826
i	-2827
r	-2828
l	-2829
d	-2830
u	-2831
c	-2832
h	-2833
m	-2834
p	-2835
.	-2836
g	-2837
y	-2838
,	-2839
b	-2840
f	-2841
w	-2842
v	-2843
q	-2844
k	-2845
'	-2846
I	-2847
í	-2848
A	-2849
ó	-2850
á	-2851
j	-2852
T	-2853
E	-2854
S	-2855
-	-2856
Y	-2857
z	-2858
é	-2859
?	-2860
x	-2861
0	-2862
P	-2863
W	-2864
N	-2865
B	-2866
C	-2867
L	-2868
M	-2869
:	-2870
ñ	-2871
H	-2872
D	-2873
¿	-2874
1	-2875
O	-2876
G	-2877
ú	-2878
U	-2879
2	-2880
R	-2881
F	-2882
5	-2883
V	-2884
9	-2885
J	-2886
;	-2887
Q	-2888
3	-2889
K	-2890
4	-2891
8	-2892
6	-2893
!	-2894
7	-2895
¡	-2896
É	-2897
%	-2898
X	-2899
[	-2900
]	-2901
’	-2902
Á	-2903
”	-2904
“	-2905
Z	-2906
/	-2907
ü	-2908
$	-2909
♫	-2910
#	-2911
–	-2912
»	-2913
«	-2914
&	-2915
—	-2916
+	-2917
=	-2918
‘	-2919
(	-2920
♪	-2921
Í	-2922
°	-2923
Ó	-2924
Ú	-2925
ń	-2926
)	-2927
à	-2928
ê	-2929
ö	-2930
^	-2931
â	-2932
ò	-2933
́	-2934
个	-2935
我	-2936
@	-2937
`	-2938
Ñ	-2939
ã	-2940
ç	-2941
ā	-2942
̈	-2943
。	-2944
了	-2945
你	-2946
历	-2947
啊	-2948
妈	-2949
有	-2950
来	-2951
洋	-2952
游	-2953
>	-2954
}	-2955
©	-2956
­	-2957
®	-2958
Ç	-2959
ì	-2960
ī	-2961
ň	-2962
ō	-2963
š	-2964
̊	-2965
⁄	-2966
€	-2967
一	-2968
下	-2969
不	-2970
世	-2971
中	-2972
以	-2973
出	-2974
可	-2975
唱	-2976
喜	-2977
声	-2978
外	-2979
大	-2980
太	-2981
妨	-2982
姐	-2983
心	-2984
教	-2985
曲	-2986
歌	-2987
王	-2988
界	-2989
的	-2990
等	-2991
给	-2992
阳	-2993
面	-2994
音	-2995
